#include "network_data.h"

ai_handle ai_network_data_weights_get(void)
{

  AI_ALIGNED(4)
  static const ai_u8 s_network_weights[ 9384 ] = {
    0x6c, 0x2c, 0xff, 0x3d, 0x39, 0x2a, 0xd2, 0x3e, 0xb9, 0x15,
    0xa4, 0x3e, 0x4a, 0x67, 0x4e, 0x3f, 0xcf, 0xc8, 0xa5, 0x3e,
    0xca, 0xda, 0xc0, 0x3e, 0x86, 0x0b, 0xaf, 0x3e, 0x5f, 0xb2,
    0x17, 0x3f, 0x75, 0xb2, 0x1c, 0x3f, 0xdf, 0xe1, 0x85, 0xbe,
    0xd2, 0xa9, 0xc2, 0x3e, 0xb0, 0x4c, 0x27, 0x3f, 0xd0, 0x6a,
    0x8a, 0xbe, 0x38, 0x6d, 0x53, 0x3e, 0x48, 0x6a, 0xf2, 0x3e,
    0xc3, 0xcf, 0x0a, 0xbe, 0x29, 0xc7, 0xbc, 0x3e, 0x39, 0x74,
    0x87, 0x3d, 0xc4, 0x3c, 0x89, 0x3e, 0xd6, 0xbe, 0x2a, 0x3f,
    0xa8, 0xd0, 0x0e, 0x3f, 0x3d, 0x13, 0x4d, 0x3f, 0x4c, 0x57,
    0x32, 0x3e, 0x85, 0x6b, 0xbb, 0x3e, 0xaf, 0xf1, 0x7a, 0xbc,
    0x0e, 0xc0, 0x0a, 0x3e, 0x36, 0x3a, 0x1c, 0xbe, 0xab, 0xab,
    0x21, 0xbf, 0x0c, 0x75, 0xe8, 0xbe, 0x8f, 0xb0, 0xab, 0x3e,
    0x32, 0x95, 0x1e, 0xbf, 0x79, 0x2f, 0x53, 0x3d, 0xc5, 0x4d,
    0xcc, 0x3e, 0xa8, 0x6f, 0xb8, 0xbe, 0x48, 0x91, 0x19, 0x3e,
    0x56, 0x3f, 0x06, 0x3f, 0x55, 0xb7, 0xc1, 0x3d, 0x09, 0xe0,
    0x29, 0xbe, 0x5a, 0x58, 0x81, 0x3d, 0x77, 0x8b, 0x3d, 0xbe,
    0xb0, 0x99, 0x44, 0x3e, 0x7b, 0xcd, 0x19, 0x3e, 0xc0, 0x53,
    0xaa, 0x3e, 0x1e, 0x3b, 0x8d, 0x3c, 0xe8, 0xf7, 0xce, 0x3d,
    0xad, 0xd0, 0x04, 0x3e, 0x33, 0xcb, 0xe5, 0x3e, 0xd1, 0xe6,
    0x78, 0x3d, 0xfd, 0xcb, 0xc3, 0x3e, 0x42, 0x9d, 0x61, 0x3e,
    0xbe, 0x18, 0x6a, 0x3e, 0x25, 0x03, 0x2c, 0x3e, 0xae, 0xf4,
    0x8d, 0xbe, 0xd8, 0x60, 0x27, 0xbe, 0xf3, 0x20, 0x1a, 0xbe,
    0x2b, 0x58, 0x50, 0xbe, 0x27, 0xe1, 0x80, 0xbd, 0x45, 0xbc,
    0x9b, 0x3b, 0x7a, 0xef, 0x32, 0x3e, 0x95, 0xd3, 0x1b, 0xbd,
    0xff, 0xaa, 0xee, 0xbe, 0x4e, 0x5d, 0xf1, 0xbe, 0x55, 0xa4,
    0x99, 0xbe, 0x83, 0xf9, 0xbe, 0xbd, 0x94, 0xcc, 0xa8, 0xbe,
    0x4a, 0xca, 0xe8, 0x3c, 0x7b, 0x57, 0xd9, 0xbe, 0xb9, 0xef,
    0x35, 0xbe, 0xd9, 0xeb, 0x88, 0xbd, 0xd0, 0x8f, 0x9f, 0xbe,
    0x97, 0x2a, 0x8b, 0xbd, 0x7c, 0x22, 0x18, 0x3e, 0x92, 0x02,
    0x9f, 0xbd, 0xac, 0xb2, 0x54, 0xbe, 0x29, 0x06, 0xb4, 0xbe,
    0x42, 0x7f, 0x10, 0x3e, 0x5b, 0x9a, 0x94, 0xbe, 0x12, 0x81,
    0x55, 0xbc, 0x4f, 0xd7, 0xa1, 0xbe, 0x17, 0xa2, 0x9a, 0x3d,
    0xb9, 0x18, 0xe3, 0x3d, 0xcc, 0xe7, 0xa4, 0x3e, 0x6a, 0x85,
    0x31, 0x3d, 0x38, 0xf1, 0x7e, 0x3e, 0xf0, 0xe9, 0x0a, 0x3e,
    0xcb, 0xcf, 0x55, 0x3c, 0xac, 0x70, 0x37, 0x3d, 0xcc, 0xa1,
    0x07, 0x3c, 0x21, 0xfc, 0x18, 0xbe, 0xf4, 0x19, 0x6f, 0x3d,
    0x67, 0xf0, 0x50, 0xbe, 0x22, 0xbd, 0xc9, 0x3e, 0x8e, 0x23,
    0x67, 0x3e, 0x16, 0xc1, 0x00, 0x3f, 0xb0, 0xa3, 0xd2, 0xbd,
    0x40, 0xb9, 0x71, 0x3e, 0xd3, 0x00, 0x96, 0xbe, 0xee, 0x86,
    0xa7, 0x3b, 0x76, 0x3f, 0x39, 0xbd, 0x0b, 0xc7, 0x74, 0xbe,
    0x87, 0xef, 0x6b, 0x3c, 0x5a, 0x54, 0xf9, 0x3d, 0xc0, 0xec,
    0xde, 0xbd, 0x63, 0x19, 0x5c, 0x3e, 0x27, 0x3c, 0x4c, 0x3e,
    0xf5, 0x6a, 0xc4, 0x3e, 0xdb, 0x6e, 0xd0, 0x3d, 0x69, 0x3b,
    0xf8, 0x3e, 0x85, 0x8a, 0xa3, 0xbe, 0x9e, 0x7f, 0x81, 0xbe,
    0xc2, 0xf6, 0x98, 0xbd, 0x73, 0xbc, 0xf1, 0xbe, 0xb9, 0xff,
    0xc6, 0xbd, 0x8a, 0xc1, 0x4c, 0xbd, 0xc3, 0x52, 0x78, 0xbe,
    0x33, 0x4a, 0x5f, 0x3d, 0x5b, 0x8c, 0x50, 0x3e, 0x14, 0xc4,
    0x5b, 0xbe, 0xa0, 0x4e, 0xb8, 0x3d, 0x96, 0x51, 0x2a, 0x3e,
    0xdf, 0x26, 0x70, 0x3d, 0x28, 0xfd, 0x6f, 0xbe, 0x2b, 0x5e,
    0xe4, 0x3d, 0x84, 0x09, 0xab, 0xbe, 0xe0, 0x0a, 0x47, 0x3e,
    0xa7, 0xad, 0x1b, 0xbe, 0x8f, 0x29, 0x54, 0x3e, 0x16, 0x42,
    0xc2, 0xbe, 0xdf, 0x20, 0x9c, 0x3e, 0x87, 0x64, 0x9b, 0x3e,
    0x4f, 0x53, 0x64, 0xbc, 0xe2, 0x3e, 0x13, 0xbe, 0x27, 0x3f,
    0x3c, 0x3e, 0x23, 0x8e, 0xcc, 0x3e, 0x68, 0xca, 0x9b, 0xbd,
    0xa6, 0xae, 0x49, 0xbe, 0x1f, 0x51, 0xec, 0xbe, 0x6a, 0x12,
    0x90, 0xbe, 0xa9, 0x1d, 0x97, 0xbd, 0x29, 0xfb, 0x3c, 0xbe,
    0xc9, 0x16, 0x54, 0xbe, 0x82, 0xe8, 0xef, 0x3d, 0x9c, 0x25,
    0x7d, 0xbe, 0x0a, 0x0a, 0xb1, 0xbe, 0xcb, 0x47, 0x28, 0x3e,
    0x6f, 0xa6, 0xb6, 0x3e, 0x56, 0xcb, 0xa6, 0xbd, 0xf2, 0x63,
    0x02, 0xbe, 0x5a, 0xc3, 0xc5, 0xbe, 0xb5, 0x26, 0x83, 0xbe,
    0x78, 0xef, 0x29, 0xbe, 0xa5, 0x50, 0x0e, 0xbe, 0x60, 0xc6,
    0xb1, 0xbd, 0xe7, 0x02, 0xe8, 0x3d, 0x32, 0xfe, 0x17, 0xbe,
    0xc7, 0x18, 0xda, 0xbe, 0x5a, 0x54, 0xa4, 0xbe, 0xc5, 0x89,
    0x73, 0xbe, 0x6a, 0xe9, 0x8b, 0x3e, 0x48, 0x1c, 0x0b, 0xbf,
    0x15, 0x71, 0xef, 0x3c, 0x4a, 0xeb, 0x8a, 0xbc, 0xb3, 0x08,
    0x81, 0xbe, 0xcd, 0x43, 0xbd, 0xbe, 0xe7, 0x7d, 0x4b, 0xbe,
    0x67, 0xaf, 0x85, 0xbe, 0xf1, 0x08, 0xd5, 0xbb, 0x31, 0xf4,
    0xad, 0xbd, 0xc9, 0x8f, 0x75, 0xbd, 0x94, 0x47, 0x02, 0xbd,
    0x08, 0xcc, 0x99, 0xbe, 0x3b, 0x63, 0xad, 0xbd, 0xb2, 0x4d,
    0x27, 0x3e, 0xa1, 0x94, 0x4f, 0x3d, 0x9c, 0xea, 0x9a, 0x3e,
    0x82, 0xfc, 0x2f, 0x3e, 0x8c, 0x37, 0x5b, 0x3e, 0x34, 0x82,
    0x89, 0x3d, 0x54, 0x0d, 0x8f, 0x3e, 0x07, 0xda, 0x18, 0x3e,
    0x56, 0x09, 0x60, 0x3e, 0x12, 0x67, 0x30, 0x3e, 0x57, 0x2d,
    0x8c, 0x3e, 0x5a, 0xac, 0x47, 0xbe, 0x43, 0xd3, 0xc2, 0xbe,
    0x74, 0xb6, 0xa2, 0xbe, 0x77, 0x57, 0x24, 0xbf, 0x0e, 0x4f,
    0x87, 0x3e, 0x26, 0xf4, 0xdc, 0xbd, 0xa1, 0xde, 0x83, 0xbe,
    0x2f, 0x7d, 0xdd, 0xbe, 0x53, 0x84, 0xb5, 0x3d, 0x54, 0xc5,
    0x13, 0xbe, 0x20, 0x5f, 0xa5, 0xbe, 0x81, 0x3f, 0x4d, 0xbe,
    0x63, 0x80, 0x7f, 0xbe, 0xba, 0x92, 0xb2, 0x3e, 0x91, 0x28,
    0x30, 0x3e, 0xb9, 0x28, 0xed, 0x3d, 0xe6, 0x7a, 0x08, 0xbe,
    0x52, 0x64, 0xc1, 0xbc, 0x18, 0x73, 0x43, 0x3e, 0x32, 0x4e,
    0x6b, 0x3e, 0x3b, 0xa6, 0x17, 0xbe, 0x69, 0x4d, 0x98, 0x3e,
    0xe7, 0x4b, 0x42, 0xbe, 0x8b, 0x34, 0x9d, 0x3d, 0xa3, 0x0d,
    0xca, 0xbc, 0xe5, 0x15, 0x22, 0x3e, 0xb1, 0xa8, 0x96, 0xbe,
    0x69, 0xbc, 0x30, 0x3e, 0x9a, 0x18, 0x4e, 0xbd, 0xb8, 0x44,
    0x59, 0xbd, 0xa8, 0x88, 0x3e, 0xbe, 0xa5, 0x66, 0x25, 0x3e,
    0x77, 0x24, 0x49, 0x3d, 0xa1, 0x7e, 0xa6, 0xbd, 0x00, 0x25,
    0xf4, 0xbd, 0x70, 0x39, 0xb2, 0x3e, 0xfe, 0xe5, 0x91, 0xbc,
    0x67, 0xea, 0x92, 0x3c, 0x14, 0x4a, 0xf2, 0xbd, 0x26, 0xa2,
    0xf7, 0xbb, 0x90, 0xf9, 0x6d, 0xbd, 0x28, 0xf9, 0x43, 0x3e,
    0x38, 0x13, 0x9b, 0xbe, 0xce, 0x3f, 0x64, 0x3d, 0xce, 0xa5,
    0xaa, 0xbe, 0xcd, 0x79, 0x36, 0x3d, 0x10, 0xf9, 0xf6, 0xbe,
    0x77, 0x43, 0xe7, 0x3d, 0x3e, 0x09, 0x8f, 0xbe, 0x50, 0xbc,
    0x5b, 0xbd, 0x24, 0x2f, 0x6d, 0x3e, 0xf9, 0xc3, 0x06, 0x3e,
    0x70, 0x0b, 0x47, 0xbe, 0xa6, 0xe5, 0x60, 0x3e, 0xa1, 0xac,
    0x98, 0x3e, 0x28, 0x45, 0x58, 0x3e, 0x2a, 0x7c, 0x06, 0xbf,
    0x4d, 0xc7, 0xee, 0x3d, 0xae, 0x5e, 0xe1, 0x3e, 0x1f, 0x7a,
    0xb6, 0x3e, 0x36, 0xd8, 0xb0, 0xbe, 0xa7, 0x97, 0xfa, 0xbe,
    0x4d, 0x90, 0x63, 0x3c, 0xf8, 0xe1, 0xd2, 0xbe, 0xf7, 0xe1,
    0xb4, 0xbd, 0x90, 0xec, 0x5c, 0xbe, 0xea, 0x1f, 0xd2, 0xbd,
    0x7e, 0xc5, 0x06, 0xbb, 0xf3, 0x38, 0x15, 0xbe, 0xa4, 0xda,
    0x40, 0xbe, 0x11, 0xa8, 0x99, 0x3d, 0xb6, 0x8d, 0xc6, 0xbd,
    0x50, 0x66, 0xd7, 0x3d, 0x48, 0x1e, 0xac, 0x3e, 0x3e, 0x68,
    0x26, 0xbd, 0xb2, 0x15, 0xe8, 0x3e, 0x68, 0xe5, 0x66, 0xbe,
    0xa3, 0xf3, 0xf7, 0xbe, 0xb7, 0x86, 0xb4, 0xbe, 0xe9, 0xe2,
    0x15, 0xbf, 0x00, 0xef, 0xa1, 0x3d, 0xd0, 0x23, 0xec, 0xbb,
    0x76, 0x5c, 0x70, 0x3d, 0x25, 0xa2, 0x4d, 0xbe, 0xc1, 0x80,
    0x65, 0x3e, 0x24, 0xe8, 0x84, 0xbe, 0x95, 0x59, 0x24, 0xbf,
    0xf3, 0xf9, 0xeb, 0xbb, 0xf1, 0x47, 0xe7, 0xbd, 0xff, 0x17,
    0x54, 0xbe, 0x6d, 0x4d, 0x0d, 0x3e, 0x74, 0x07, 0x49, 0xbe,
    0x95, 0xbf, 0xb7, 0x3d, 0x23, 0x7e, 0x86, 0x3e, 0xb5, 0xb9,
    0xb9, 0x3d, 0x73, 0x1c, 0x9a, 0x3d, 0xd1, 0xcc, 0xaa, 0x3e,
    0x60, 0x0f, 0x97, 0xbe, 0x8b, 0x69, 0xad, 0xbe, 0xe1, 0xbf,
    0x96, 0xbe, 0x1d, 0xf8, 0xac, 0x3e, 0x1c, 0xe1, 0x1a, 0xbe,
    0xe7, 0x66, 0x9d, 0x3e, 0x75, 0xb9, 0x41, 0xbd, 0x4f, 0xbe,
    0xe4, 0x3e, 0x3a, 0x63, 0x3d, 0xbd, 0xcf, 0x45, 0x5a, 0x3d,
    0xf5, 0xd6, 0xf7, 0x3d, 0x20, 0x7e, 0x02, 0x3f, 0x64, 0x2d,
    0xab, 0xbd, 0x60, 0x11, 0x25, 0x3e, 0x68, 0xea, 0x90, 0x3e,
    0x52, 0x56, 0x65, 0xbe, 0x1c, 0xde, 0xce, 0xbd, 0x29, 0x40,
    0xe2, 0xbd, 0xe7, 0xa8, 0x9c, 0x3d, 0x17, 0x41, 0xf1, 0xbd,
    0xed, 0x08, 0xc4, 0xbd, 0x6d, 0x6b, 0x4f, 0x3e, 0x86, 0x54,
    0x92, 0xbd, 0xed, 0x78, 0x82, 0xba, 0x83, 0xba, 0xc6, 0xbe,
    0x6a, 0xc8, 0x05, 0xbe, 0x7a, 0xd0, 0x37, 0xbe, 0x8a, 0x3b,
    0xb4, 0xbd, 0xbd, 0x95, 0x48, 0x3e, 0xd6, 0x1f, 0x83, 0xbc,
    0x5b, 0x98, 0xa4, 0xbd, 0xd8, 0x88, 0xe1, 0x3e, 0x81, 0x35,
    0x17, 0x3b, 0xf2, 0x0c, 0xc5, 0x3e, 0x40, 0x5b, 0x1f, 0x3e,
    0x78, 0x01, 0x7c, 0x3e, 0x55, 0xfa, 0xad, 0x3d, 0x7e, 0xf0,
    0x1f, 0x3e, 0xba, 0xdb, 0xa1, 0x3d, 0x1b, 0x3f, 0x0c, 0x3f,
    0x75, 0x9b, 0xf2, 0xbd, 0x97, 0xca, 0xc2, 0x3e, 0xc5, 0x9b,
    0x9a, 0x3e, 0xc8, 0x88, 0x91, 0x3e, 0x88, 0xfd, 0x57, 0xbe,
    0xf1, 0x2d, 0x9b, 0xbe, 0x7f, 0x8e, 0x3d, 0xbd, 0x5a, 0x75,
    0x11, 0x3e, 0x84, 0xfb, 0x72, 0x3d, 0x16, 0x35, 0xeb, 0xbe,
    0x05, 0x14, 0xbf, 0xbe, 0x9c, 0x56, 0xc0, 0x3c, 0x17, 0x7a,
    0x8f, 0xbb, 0x0a, 0x0c, 0xc1, 0xbc, 0x85, 0x49, 0xf5, 0x3c,
    0x9e, 0xcd, 0xea, 0xbe, 0x02, 0xca, 0x60, 0xbe, 0x86, 0xbe,
    0x80, 0xbe, 0x5e, 0x3e, 0x5b, 0xbd, 0xde, 0x60, 0x97, 0x3c,
    0xd1, 0x73, 0x3a, 0xbb, 0x30, 0x24, 0xad, 0xbe, 0xe0, 0x2f,
    0x13, 0xbd, 0x86, 0xdc, 0xb9, 0xbd, 0x2c, 0x00, 0xe9, 0xbd,
    0x42, 0x0f, 0xd0, 0x3d, 0xe3, 0x9f, 0x3b, 0xbd, 0xbd, 0x41,
    0x85, 0x3d, 0xc0, 0x12, 0x24, 0xbd, 0x33, 0x02, 0x9f, 0xbe,
    0xac, 0xe2, 0x06, 0x3d, 0xa7, 0x2d, 0x13, 0xbd, 0x34, 0xb4,
    0x94, 0xbe, 0x00, 0xba, 0x74, 0x3d, 0xe7, 0xd7, 0xff, 0x3d,
    0x1e, 0x3a, 0x94, 0xbc, 0xd0, 0x9f, 0x7d, 0x3d, 0x7f, 0x4b,
    0xb7, 0xbd, 0x9f, 0xd9, 0xc7, 0x3c, 0x41, 0xac, 0xb8, 0x3c,
    0xad, 0xf6, 0xe4, 0xbe, 0x9e, 0xa5, 0x69, 0xbd, 0xcf, 0x60,
    0x1f, 0x3d, 0x0b, 0x5e, 0xb2, 0x3b, 0x2e, 0xaa, 0xb6, 0x3d,
    0x59, 0x85, 0x99, 0xbd, 0xc6, 0xd1, 0x92, 0xbc, 0xe0, 0xb4,
    0x99, 0x3c, 0x16, 0x32, 0x0c, 0xbf, 0x6f, 0xaa, 0x98, 0xbd,
    0x7e, 0x3c, 0xf0, 0xbb, 0x9a, 0xea, 0xf3, 0x3c, 0x85, 0xaf,
    0x00, 0x3d, 0x24, 0x3a, 0x30, 0xbe, 0x6c, 0x07, 0xc9, 0xbe,
    0x46, 0xa1, 0x71, 0xbe, 0xe0, 0x3a, 0x9a, 0xbe, 0xa2, 0x6c,
    0x96, 0x3d, 0xbf, 0xa2, 0xe2, 0x3c, 0x62, 0xb3, 0xbf, 0x3d,
    0xf0, 0xab, 0xca, 0xbc, 0x42, 0x77, 0x2a, 0xbe, 0x12, 0x3c,
    0x87, 0x3d, 0x80, 0xa1, 0x03, 0x3d, 0x2b, 0x8f, 0x2e, 0xbe,
    0xe5, 0x49, 0x24, 0x3d, 0xee, 0xf1, 0xae, 0xbd, 0x5e, 0x74,
    0x23, 0x3d, 0x62, 0x72, 0x4a, 0x3d, 0x70, 0xd1, 0x84, 0xbe,
    0x00, 0x46, 0x87, 0x3d, 0x3e, 0x13, 0xbd, 0x3d, 0xf0, 0xdd,
    0x3e, 0x3d, 0x1a, 0x21, 0xb0, 0x3c, 0x97, 0x7b, 0x62, 0xbd,
    0x4c, 0xbc, 0x6b, 0xbb, 0xd8, 0x0e, 0x28, 0x3c, 0xbb, 0x09,
    0x3e, 0xbc, 0x3f, 0x7f, 0xa1, 0xbd, 0x70, 0xb9, 0x86, 0x37,
    0xb1, 0x2b, 0x28, 0x3d, 0xfa, 0x1f, 0x54, 0xbd, 0x0e, 0x4f,
    0x08, 0x3e, 0x7b, 0xb1, 0x9b, 0xbd, 0x2d, 0xdb, 0x4f, 0xbc,
    0x73, 0x10, 0x22, 0x3e, 0x18, 0x28, 0x23, 0xbe, 0x20, 0x60,
    0x7e, 0xbe, 0x92, 0xb0, 0xa0, 0xbe, 0xde, 0xa0, 0x6d, 0xbd,
    0xa6, 0xec, 0x42, 0x3e, 0xe1, 0x49, 0x4a, 0x3d, 0xce, 0xd3,
    0xa7, 0x3c, 0x87, 0xfb, 0x37, 0x3e, 0x3b, 0xce, 0x52, 0xbe,
    0x92, 0x9d, 0x32, 0xbe, 0x68, 0x50, 0xce, 0xbe, 0xc1, 0x93,
    0xd8, 0x3d, 0xc9, 0x29, 0xb5, 0x3d, 0xea, 0x40, 0xfa, 0x3b,
    0x7e, 0x88, 0x7a, 0x3d, 0xe7, 0x65, 0xef, 0xbd, 0xeb, 0x14,
    0x11, 0x3e, 0x71, 0xa4, 0x0f, 0x3e, 0x66, 0xf1, 0x47, 0xbe,
    0xfd, 0x16, 0x39, 0x3d, 0xd4, 0x75, 0xb7, 0xbc, 0x09, 0x27,
    0x25, 0xbd, 0x4a, 0x26, 0x0c, 0x3d, 0x74, 0x41, 0x9c, 0xbe,
    0xcf, 0xeb, 0x47, 0xbd, 0xf9, 0x9f, 0x0b, 0x3e, 0x4b, 0x2b,
    0x44, 0x3d, 0x19, 0xbf, 0x8a, 0x3d, 0x7a, 0xcb, 0x7b, 0xbe,
    0x84, 0xa0, 0xcb, 0xbe, 0xf8, 0xc9, 0x40, 0xbe, 0xdc, 0xbf,
    0x4a, 0xbe, 0xa9, 0xe8, 0x8e, 0xbe, 0xe0, 0x79, 0x7a, 0xbe,
    0x4b, 0xb1, 0xc5, 0x3d, 0x2b, 0x73, 0xc1, 0x3d, 0x69, 0x3c,
    0xa2, 0x3d, 0x54, 0x31, 0x9e, 0xbe, 0xab, 0x8d, 0x17, 0xbf,
    0x85, 0xec, 0xe4, 0x3c, 0x80, 0xee, 0x23, 0x3e, 0x46, 0xbe,
    0xb3, 0x3d, 0xbb, 0xa8, 0xab, 0xbe, 0xc3, 0x71, 0x64, 0x3e,
    0x88, 0x52, 0x3d, 0x3e, 0x7f, 0x54, 0x1f, 0xbe, 0x52, 0x9f,
    0x6e, 0xbe, 0x94, 0x6a, 0x2c, 0x3e, 0xb9, 0x4e, 0xa6, 0x3c,
    0xbf, 0x71, 0xca, 0x3d, 0x39, 0xc6, 0x07, 0xbf, 0x97, 0x8d,
    0x0b, 0x3e, 0xbe, 0xf1, 0xbd, 0x3d, 0x44, 0x80, 0x53, 0xbe,
    0x03, 0x31, 0x92, 0xbe, 0xec, 0x95, 0xa9, 0xbd, 0x12, 0x3e,
    0x9b, 0x3d, 0x03, 0x7c, 0xb9, 0x3d, 0x38, 0xe7, 0xe0, 0xbe,
    0xd6, 0x3f, 0x9e, 0x3d, 0xf0, 0x37, 0x17, 0x3c, 0xe1, 0x18,
    0x02, 0xbe, 0xde, 0xe3, 0x7f, 0xbe, 0x00, 0x11, 0xca, 0xbd,
    0x3b, 0x9b, 0x1c, 0xbd, 0x15, 0x69, 0xa9, 0x3d, 0xfb, 0x20,
    0xb6, 0xbe, 0xe4, 0xb4, 0x93, 0xbe, 0x2c, 0xe4, 0xec, 0xbe,
    0x81, 0x42, 0xe1, 0xbc, 0x06, 0x76, 0x29, 0xbd, 0x99, 0x51,
    0x11, 0xbf, 0x54, 0xcb, 0x1b, 0x3e, 0x40, 0xd4, 0x2a, 0xbd,
    0x0f, 0xd8, 0xd2, 0xbe, 0x03, 0xfe, 0xd3, 0x3d, 0xa6, 0xf3,
    0x08, 0xbe, 0x45, 0xb4, 0x30, 0x3e, 0x3b, 0xdf, 0xbc, 0x3d,
    0x1e, 0x12, 0xae, 0xbe, 0x43, 0x77, 0x32, 0x3e, 0x78, 0xf3,
    0x63, 0x3e, 0x2e, 0xa4, 0xf5, 0x3d, 0x3a, 0x95, 0xfd, 0x3d,
    0x64, 0x3e, 0x02, 0x3e, 0x36, 0xdd, 0x98, 0xbd, 0x29, 0xa1,
    0x4f, 0xbd, 0x8b, 0xa4, 0x83, 0x3d, 0x74, 0xe5, 0x13, 0x3e,
    0x26, 0x7d, 0x46, 0x3e, 0x81, 0x6f, 0xfb, 0xbd, 0xd2, 0xcf,
    0x2c, 0x3d, 0x53, 0x41, 0xa4, 0x3d, 0x78, 0x2c, 0xc0, 0xbe,
    0xb7, 0x65, 0xed, 0xbe, 0xa0, 0x0f, 0xba, 0x3d, 0x57, 0x19,
    0x9b, 0x3c, 0x09, 0xc4, 0x60, 0x3d, 0xe1, 0xb6, 0x6f, 0xbd,
    0xd1, 0x95, 0x60, 0x3d, 0xff, 0x82, 0xe3, 0x3d, 0x49, 0x40,
    0x0b, 0x3d, 0xf9, 0x64, 0x64, 0xbd, 0x30, 0xb5, 0x08, 0x3d,
    0xf8, 0x6b, 0x2e, 0xbe, 0xee, 0xdc, 0xa0, 0xbe, 0x62, 0x8e,
    0x8d, 0xbd, 0xee, 0x4c, 0x2e, 0xbe, 0x7f, 0xb8, 0x35, 0xbd,
    0x16, 0x68, 0x10, 0x3e, 0x9a, 0x82, 0x19, 0x3e, 0x6d, 0x67,
    0x27, 0xbd, 0x5b, 0x7a, 0xcc, 0xbe, 0x48, 0xd6, 0x01, 0xbe,
    0x4e, 0xda, 0xa2, 0x3d, 0x9d, 0xc4, 0xb6, 0x3d, 0xb1, 0xbf,
    0x3f, 0xbd, 0x63, 0xa4, 0x03, 0x3e, 0x35, 0x4a, 0x57, 0x3e,
    0x7a, 0x0c, 0x1f, 0x3c, 0x27, 0x93, 0xf8, 0xbd, 0x49, 0xb5,
    0x8b, 0x3c, 0x61, 0xb9, 0xa0, 0x3d, 0x44, 0x9b, 0xb6, 0x3d,
    0x42, 0xa4, 0x49, 0x3d, 0xe6, 0x64, 0x90, 0xbd, 0xdd, 0x27,
    0xbb, 0x3d, 0xa6, 0xa7, 0xd1, 0x3d, 0xcd, 0x4d, 0x3d, 0x3e,
    0x58, 0x98, 0xb7, 0x3d, 0xb6, 0x84, 0x1e, 0x3e, 0x71, 0xd0,
    0xe5, 0xbd, 0x33, 0x93, 0x94, 0xbe, 0x4f, 0x18, 0x7b, 0xbe,
    0x6e, 0xe0, 0x5a, 0xbe, 0x76, 0x0f, 0x34, 0xbc, 0x69, 0x8f,
    0x39, 0xbe, 0xbc, 0xa0, 0x96, 0xbe, 0x20, 0xf1, 0xb5, 0x3d,
    0x6b, 0x97, 0x12, 0xbe, 0xf9, 0x08, 0xd0, 0x3d, 0x4e, 0x28,
    0xe3, 0xbc, 0x36, 0xdb, 0xbe, 0xbd, 0x25, 0xd4, 0x47, 0x3d,
    0xa5, 0x9d, 0x47, 0x3d, 0xc4, 0xb1, 0x55, 0xbe, 0x9e, 0x87,
    0xc1, 0x3c, 0xe4, 0xe6, 0x93, 0x3e, 0x87, 0xfa, 0xe7, 0x3e,
    0x75, 0xe5, 0xbb, 0xbc, 0x98, 0x4c, 0x90, 0xbc, 0xed, 0xa0,
    0x3e, 0x3d, 0x4c, 0x30, 0x09, 0x3e, 0xac, 0x45, 0x9c, 0x3c,
    0xc9, 0x6e, 0xcf, 0x3d, 0xc5, 0xe8, 0x53, 0x3e, 0x1f, 0x26,
    0x2f, 0xbc, 0x3d, 0xbd, 0xbf, 0xbc, 0xf4, 0x6e, 0xb0, 0x3d,
    0x20, 0xbc, 0xb2, 0xbe, 0x5e, 0x8e, 0xbb, 0x3e, 0x92, 0xc2,
    0x37, 0x3e, 0xa6, 0x84, 0x59, 0xbe, 0x8c, 0xbc, 0x9e, 0x3e,
    0x19, 0xb3, 0xea, 0xbe, 0xb1, 0x78, 0xe5, 0xbc, 0x90, 0x46,
    0x3e, 0xbc, 0x47, 0x23, 0xf2, 0xbe, 0x60, 0x59, 0xba, 0x3d,
    0x5b, 0xed, 0x2a, 0x3e, 0x19, 0xc0, 0xea, 0x3c, 0x32, 0xde,
    0x3d, 0xbe, 0x9b, 0x88, 0x17, 0xbe, 0xea, 0x9f, 0x05, 0xbd,
    0x32, 0x99, 0xf6, 0xbd, 0x9c, 0x49, 0xad, 0x3a, 0x3d, 0x17,
    0xdd, 0xbd, 0x8c, 0xb1, 0x8a, 0xbd, 0x2e, 0x0d, 0xe5, 0xbd,
    0x59, 0x61, 0x8c, 0xbe, 0x78, 0x95, 0xad, 0xbc, 0xcf, 0x97,
    0x94, 0xbe, 0x67, 0x45, 0xbc, 0xbe, 0x42, 0x48, 0xfa, 0x3c,
    0x37, 0x5a, 0xb3, 0xbc, 0x41, 0x05, 0x85, 0xbe, 0x55, 0x98,
    0x4f, 0xbe, 0x2f, 0x29, 0x98, 0x3d, 0x1b, 0xb9, 0x1e, 0x3e,
    0x8e, 0x84, 0xc3, 0x3d, 0x12, 0x16, 0x27, 0xbe, 0xf0, 0x58,
    0x94, 0x3d, 0x35, 0x59, 0x8b, 0x3d, 0xa1, 0x72, 0xfa, 0xbc,
    0x67, 0xb3, 0xd9, 0xbe, 0x59, 0x8e, 0xf6, 0x3d, 0x20, 0xa4,
    0xd6, 0xbe, 0xb6, 0x3e, 0x2c, 0x3e, 0x2d, 0x02, 0xa1, 0x3d,
    0xdb, 0xf4, 0x0c, 0xbf, 0x28, 0x19, 0x95, 0x3e, 0x18, 0xa6,
    0xdd, 0x3d, 0xf4, 0x6a, 0xa5, 0xbd, 0xb2, 0xbc, 0x09, 0x3e,
    0x50, 0x1d, 0xb2, 0xbe, 0x5f, 0x63, 0x0e, 0xbf, 0xe7, 0x33,
    0xd6, 0xbe, 0x8d, 0xd6, 0xd4, 0xbe, 0x54, 0xd8, 0x1a, 0x3e,
    0x73, 0x12, 0xbf, 0xbe, 0x0b, 0xe5, 0x4c, 0x3e, 0x37, 0xea,
    0xdb, 0x3c, 0x15, 0x17, 0xd6, 0xbd, 0x9b, 0x7d, 0x7b, 0xbe,
    0x3b, 0x56, 0x8b, 0xbd, 0xd7, 0x9e, 0x3d, 0xbe, 0xb6, 0x7e,
    0xa2, 0xbd, 0xdc, 0x0c, 0x4d, 0xbe, 0x07, 0x2a, 0xa8, 0x3d,
    0x62, 0x2d, 0x9c, 0xbe, 0xca, 0xb9, 0x9b, 0x3d, 0x8f, 0xba,
    0x6f, 0x3d, 0xa9, 0x16, 0x8c, 0x3c, 0xb4, 0xee, 0x00, 0xbe,
    0xd6, 0x1e, 0x05, 0x3c, 0x4e, 0x26, 0x7b, 0xbe, 0x9c, 0xeb,
    0x4c, 0xbc, 0x59, 0x10, 0xf0, 0x3d, 0x21, 0x66, 0xfa, 0x3d,
    0xba, 0xca, 0x4f, 0xbc, 0x7d, 0xd2, 0x39, 0x3d, 0x01, 0x93,
    0xd8, 0x3c, 0x9c, 0xdf, 0x60, 0x3e, 0x8c, 0x06, 0x1e, 0x3e,
    0x41, 0x5f, 0xbd, 0xbc, 0x3f, 0x66, 0xad, 0x3c, 0xe9, 0xba,
    0x98, 0xbe, 0x6d, 0xe8, 0x80, 0xbe, 0xbb, 0x8d, 0x19, 0xbd,
    0xcb, 0xd9, 0xa7, 0xbe, 0x4b, 0x84, 0x9a, 0xbe, 0x4a, 0x59,
    0xce, 0xbe, 0xfb, 0xc5, 0x81, 0xbd, 0xd4, 0xbb, 0xef, 0xbd,
    0xe1, 0x7a, 0x45, 0xbe, 0x9a, 0x42, 0x77, 0xbe, 0xbc, 0x94,
    0x74, 0xbe, 0x65, 0x4c, 0x76, 0xbe, 0x6f, 0xfa, 0xba, 0xbc,
    0xaf, 0x39, 0x3a, 0xbe, 0x68, 0xc8, 0x67, 0x3d, 0x44, 0x3a,
    0xac, 0xbe, 0xf4, 0x2a, 0x22, 0xbe, 0x65, 0xec, 0x40, 0x3d,
    0xe9, 0x51, 0x27, 0xbe, 0x71, 0xdd, 0x71, 0xbe, 0x0e, 0xa9,
    0xaa, 0x3c, 0x67, 0x62, 0xc2, 0xbd, 0x5b, 0x42, 0xed, 0xbc,
    0xc9, 0x02, 0xaf, 0xbd, 0xbb, 0x96, 0x8d, 0xbd, 0x6b, 0xf2,
    0x94, 0x3d, 0x22, 0xa3, 0xaf, 0x3d, 0x5b, 0xc2, 0x98, 0xbe,
    0x9a, 0x34, 0x0f, 0x3e, 0x78, 0x71, 0x18, 0x3c, 0xae, 0x08,
    0x04, 0x3e, 0x4c, 0xf5, 0x27, 0x3e, 0x51, 0x79, 0x39, 0x3e,
    0x09, 0x6e, 0x03, 0xbe, 0x48, 0xf1, 0x01, 0x3c, 0x59, 0xa3,
    0xa2, 0x3d, 0xa1, 0xe4, 0x8c, 0x3e, 0x3f, 0x12, 0x81, 0x3c,
    0xc0, 0xc9, 0x35, 0x3d, 0x9a, 0x6a, 0xeb, 0xbe, 0x39, 0x14,
    0xe3, 0xbe, 0x30, 0x6d, 0x07, 0xbd, 0x8e, 0xac, 0xef, 0xbd,
    0xb0, 0x7e, 0x77, 0xbe, 0x6b, 0xc1, 0xc3, 0x3e, 0x4a, 0x1b,
    0x04, 0xbf, 0x47, 0x2e, 0xe7, 0xbd, 0xe6, 0xf6, 0x9f, 0xbd,
    0x57, 0x2f, 0x57, 0xbe, 0x3a, 0x76, 0x22, 0x3d, 0xff, 0xb7,
    0xb6, 0xbc, 0x5a, 0xc0, 0xc9, 0xbe, 0x32, 0x93, 0x6c, 0xbd,
    0xa7, 0x86, 0xdb, 0xbd, 0x45, 0xc3, 0x27, 0xbe, 0xf0, 0x4e,
    0x2b, 0xbd, 0x7e, 0xaa, 0x75, 0xbd, 0x8a, 0xd2, 0x1d, 0x3e,
    0xb6, 0x56, 0x65, 0x3d, 0xc0, 0x9b, 0x1f, 0xbe, 0xb3, 0x86,
    0x99, 0x3d, 0xa2, 0x8a, 0x8e, 0x3d, 0x4a, 0x10, 0x03, 0x3d,
    0xe2, 0xcc, 0xd2, 0x3d, 0xf0, 0x81, 0xb6, 0xba, 0x2d, 0x5f,
    0xa4, 0x3b, 0xca, 0x72, 0x40, 0x3e, 0x59, 0xc4, 0xf2, 0xbd,
    0x78, 0xc3, 0xd0, 0x3d, 0x99, 0xe5, 0xa2, 0xbc, 0x6c, 0x26,
    0x51, 0xbc, 0x8b, 0x96, 0x21, 0x3e, 0xd5, 0xf6, 0x28, 0x3e,
    0x3c, 0xdd, 0xf9, 0xbd, 0xc0, 0xa7, 0xfe, 0xbd, 0x36, 0xc7,
    0x0c, 0x3e, 0xb3, 0xe7, 0xa1, 0x3e, 0xaf, 0x4a, 0xf5, 0x3c,
    0x8e, 0xeb, 0x62, 0xbd, 0x5e, 0x35, 0xa0, 0xbe, 0x0a, 0xe7,
    0xd4, 0x3c, 0xef, 0xe7, 0x9b, 0xbd, 0x09, 0xad, 0x4e, 0xbe,
    0x04, 0x5e, 0x11, 0x3e, 0xe4, 0xe7, 0x2f, 0x3e, 0x8a, 0x1f,
    0x00, 0xbf, 0x7b, 0xd2, 0x35, 0xbe, 0x39, 0x02, 0xcd, 0xbd,
    0x12, 0x3f, 0x80, 0x3d, 0x4b, 0x96, 0x3f, 0x3e, 0xa4, 0x3c,
    0x98, 0x3e, 0xfb, 0x6c, 0xa2, 0x3d, 0xa4, 0x7b, 0x3e, 0xbf,
    0x8d, 0x94, 0x5d, 0xbe, 0x27, 0x4d, 0x40, 0xba, 0x7c, 0xa7,
    0x82, 0x3d, 0xf0, 0xec, 0x10, 0xbd, 0x37, 0x3f, 0x8f, 0x3b,
    0x98, 0x9e, 0x1e, 0x3c, 0xc6, 0xb3, 0xa2, 0x3d, 0x7f, 0xc6,
    0x8f, 0xbd, 0x6c, 0x03, 0xb2, 0x3d, 0x2c, 0xbf, 0x62, 0x3e,
    0xbe, 0x78, 0x08, 0x3e, 0xb0, 0x04, 0x54, 0x3d, 0x05, 0x16,
    0xf0, 0x3c, 0x4e, 0x9d, 0x17, 0xbd, 0x48, 0xea, 0x7e, 0x3e,
    0xb1, 0x99, 0x5c, 0x3d, 0x30, 0x64, 0x7a, 0xbc, 0x99, 0x18,
    0xa6, 0x3d, 0x5a, 0xa3, 0xc0, 0xbc, 0xd5, 0x02, 0x8a, 0x3e,
    0x84, 0xa2, 0x4f, 0xbd, 0x16, 0x88, 0x60, 0x3c, 0xaf, 0xd2,
    0x8d, 0x3e, 0xe9, 0x9c, 0x9b, 0xbd, 0x6c, 0xdb, 0x91, 0xba,
    0x33, 0xf7, 0x3d, 0xbe, 0x1b, 0xf6, 0x81, 0xbe, 0xd6, 0x8e,
    0x7b, 0x3e, 0xd3, 0xf1, 0x66, 0xbd, 0x51, 0x62, 0x47, 0x3d,
    0x2e, 0x8a, 0x0b, 0x3e, 0x77, 0x8f, 0xa9, 0xbe, 0x8b, 0xcb,
    0x58, 0xbe, 0x9e, 0xfb, 0x9a, 0xbe, 0x91, 0x03, 0xbf, 0xbe,
    0xb8, 0x7f, 0x2f, 0x3d, 0xda, 0x3c, 0x97, 0xbd, 0x49, 0x01,
    0x03, 0xbd, 0x6e, 0xae, 0x97, 0x3d, 0x39, 0x81, 0x03, 0xbf,
    0x12, 0x8f, 0x1e, 0xbf, 0x82, 0x41, 0x87, 0x3e, 0x8a, 0x51,
    0x73, 0x3c, 0x44, 0xaa, 0xa9, 0xbd, 0xc3, 0x7c, 0x09, 0x3d,
    0x65, 0x96, 0x0b, 0xbd, 0x82, 0x26, 0x1c, 0x3d, 0x7f, 0x73,
    0x4f, 0xbc, 0x4a, 0x95, 0x19, 0xbd, 0x54, 0x86, 0x49, 0x3e,
    0xb4, 0xf0, 0x2c, 0xbd, 0x0e, 0x52, 0xdb, 0x3b, 0x75, 0x19,
    0x6a, 0x3d, 0xbe, 0x86, 0x30, 0xbc, 0x42, 0x7c, 0x09, 0x3e,
    0x31, 0xc7, 0xa6, 0xbd, 0x11, 0x01, 0x09, 0xbd, 0x65, 0x7f,
    0xd4, 0x3d, 0xdc, 0x5a, 0x7b, 0xbd, 0x3a, 0x09, 0x72, 0x3d,
    0x09, 0x7f, 0xaf, 0xbc, 0x18, 0xe7, 0xe3, 0xbc, 0xfa, 0x50,
    0x35, 0x3e, 0x48, 0xe7, 0xbb, 0xbd, 0x9f, 0x65, 0x1c, 0xbe,
    0xe0, 0x8c, 0xa1, 0xbd, 0x43, 0x48, 0x80, 0x3d, 0xd5, 0x9e,
    0xa8, 0x3d, 0x67, 0xf7, 0x4a, 0xbd, 0xf6, 0x23, 0x71, 0xbd,
    0x09, 0x59, 0xf5, 0x3d, 0xd7, 0x28, 0x2c, 0x3d, 0x20, 0x61,
    0x16, 0x3d, 0x88, 0x94, 0xdb, 0xbe, 0xec, 0x7d, 0x80, 0x3d,
    0x86, 0xba, 0xeb, 0xbd, 0xe5, 0x28, 0xa0, 0xbd, 0xb8, 0xda,
    0xd3, 0xbd, 0x35, 0x11, 0xf5, 0xbd, 0x53, 0xca, 0x51, 0xbe,
    0x79, 0x3b, 0x5a, 0x3b, 0xda, 0x68, 0x8d, 0x3e, 0x16, 0x7b,
    0x30, 0xbe, 0x7d, 0x68, 0x23, 0xbe, 0x8b, 0x14, 0x60, 0x3e,
    0x82, 0x55, 0x83, 0x3e, 0xf9, 0x94, 0x1a, 0xbc, 0x33, 0x8a,
    0xee, 0x3c, 0xe6, 0x0e, 0xcf, 0x3c, 0xb7, 0xb5, 0x18, 0x3e,
    0x7e, 0x2b, 0x45, 0xbe, 0xed, 0x22, 0xb0, 0xbd, 0xef, 0xb5,
    0x38, 0x3e, 0x8f, 0xd3, 0x3c, 0x3e, 0xae, 0x26, 0x12, 0xbd,
    0xf4, 0xa1, 0xda, 0xbd, 0xfe, 0x9b, 0x94, 0x3d, 0xd4, 0x0c,
    0x57, 0x3d, 0xbb, 0xa9, 0xd5, 0xbd, 0x9f, 0x64, 0x3b, 0xbe,
    0x94, 0x62, 0x11, 0x3e, 0x2a, 0x87, 0x9d, 0x3d, 0x05, 0x60,
    0x42, 0xbe, 0x9c, 0xaf, 0xa0, 0x3d, 0x68, 0x98, 0x03, 0x3e,
    0xd1, 0xc7, 0x77, 0xbd, 0xcb, 0xab, 0xa3, 0x3d, 0x0b, 0xf2,
    0x08, 0xbe, 0x59, 0x81, 0x28, 0x3d, 0x9b, 0xb0, 0x82, 0xbd,
    0x68, 0x66, 0x81, 0xbe, 0xcd, 0xb2, 0x0d, 0x3e, 0xcd, 0xa5,
    0x1b, 0x3e, 0x22, 0x05, 0xb9, 0xbd, 0xd5, 0x0a, 0x81, 0x3e,
    0xb1, 0x17, 0xc9, 0xbe, 0x43, 0x81, 0x6c, 0x3d, 0x1f, 0xfd,
    0x75, 0xbd, 0xd1, 0x96, 0xba, 0xbe, 0x1c, 0x0e, 0xb0, 0x3d,
    0x19, 0x95, 0x74, 0x3d, 0x5d, 0x67, 0x56, 0xbe, 0x16, 0x0a,
    0x0e, 0x3d, 0xdd, 0x95, 0xdd, 0xbc, 0x4c, 0x44, 0xb1, 0x3d,
    0x50, 0x37, 0x68, 0x3e, 0x09, 0x68, 0x31, 0xbe, 0xf4, 0xa0,
    0xee, 0x3d, 0xb3, 0x8b, 0x6f, 0x3e, 0x69, 0x2e, 0x1f, 0xbe,
    0xc6, 0xf0, 0x19, 0xbb, 0x98, 0x38, 0xd2, 0xbd, 0x68, 0x2b,
    0x96, 0x3d, 0x00, 0xa2, 0x5c, 0x3e, 0xc4, 0xeb, 0x96, 0xbe,
    0x98, 0xda, 0x00, 0x3e, 0x84, 0xd8, 0x5e, 0x3e, 0x46, 0x70,
    0x0e, 0xbe, 0x88, 0x9b, 0xfa, 0x3a, 0xff, 0x58, 0x6c, 0xbd,
    0x5e, 0xd3, 0xe6, 0xbd, 0x8a, 0x33, 0x75, 0x3c, 0x08, 0xa2,
    0xbe, 0xbd, 0xc7, 0x89, 0x6e, 0x3d, 0x0d, 0xea, 0xaf, 0x3d,
    0xfa, 0xe7, 0xf5, 0xbc, 0x4b, 0xab, 0xb2, 0x3c, 0x95, 0x5c,
    0x5c, 0xbd, 0x60, 0x3d, 0x15, 0x3e, 0xa6, 0x24, 0xfd, 0x3d,
    0xbd, 0xe1, 0x85, 0x3c, 0x71, 0x2c, 0x7e, 0x39, 0xf9, 0x61,
    0xf7, 0x3b, 0xf8, 0xe0, 0x0a, 0x3e, 0x34, 0x45, 0x1e, 0xbe,
    0xea, 0x21, 0x60, 0x3d, 0x00, 0xb9, 0x60, 0x3e, 0xc4, 0xa3,
    0x22, 0x3e, 0xd7, 0xcb, 0x1b, 0x3e, 0xbd, 0x3b, 0x4d, 0x3d,
    0xf8, 0xb0, 0x91, 0xbd, 0x25, 0x6d, 0xef, 0xbc, 0x73, 0xb0,
    0xbe, 0x3d, 0x62, 0xf6, 0x05, 0x3d, 0x61, 0x5c, 0x37, 0xbd,
    0x7d, 0x99, 0x8e, 0xbd, 0x09, 0x0c, 0x8b, 0x3d, 0x46, 0x40,
    0xad, 0x3d, 0xa8, 0xdc, 0x2b, 0x3e, 0x33, 0x1f, 0xa4, 0x3d,
    0x93, 0xb1, 0xa6, 0x3d, 0x26, 0xb3, 0x35, 0x3d, 0xfc, 0x3f,
    0x28, 0xbd, 0x85, 0x60, 0x6e, 0x3b, 0x69, 0xa4, 0xf3, 0xbc,
    0x1a, 0x21, 0xcd, 0x3c, 0xb4, 0xe5, 0x86, 0xbd, 0x64, 0x4d,
    0x59, 0x3d, 0xb5, 0x36, 0xb5, 0xbd, 0xef, 0x38, 0x0a, 0xbd,
    0x8b, 0x78, 0xf3, 0xbd, 0xb4, 0xe1, 0xad, 0xbd, 0xae, 0x04,
    0x54, 0xbd, 0x37, 0xba, 0x4e, 0xbe, 0x5f, 0x0a, 0x1f, 0xbe,
    0xbe, 0xdb, 0xa2, 0x3d, 0x3d, 0xfd, 0x56, 0xbe, 0xbf, 0x75,
    0xc6, 0x3d, 0x40, 0x4e, 0xaf, 0x3d, 0xf9, 0x6b, 0x52, 0x3d,
    0x06, 0x45, 0x14, 0x3e, 0x27, 0xcf, 0x96, 0xbe, 0x9a, 0x85,
    0x77, 0xbe, 0x9f, 0x4b, 0x6c, 0x3d, 0x43, 0xb8, 0xb9, 0xbe,
    0xba, 0x36, 0x08, 0x3e, 0x88, 0x8c, 0xed, 0x3e, 0x4b, 0xc7,
    0xbd, 0x3e, 0xff, 0xc0, 0x83, 0x3e, 0x3d, 0xa5, 0xf6, 0xbe,
    0x39, 0xce, 0x31, 0xbe, 0x9d, 0x8b, 0x55, 0xbe, 0xb8, 0x14,
    0x96, 0x3d, 0x4e, 0x07, 0x62, 0xba, 0xf7, 0xfe, 0x03, 0x3d,
    0x79, 0x92, 0xbd, 0x3d, 0xa0, 0xb4, 0x90, 0x39, 0x93, 0x87,
    0xd6, 0xbd, 0xf4, 0x98, 0xae, 0x3d, 0xdc, 0xcf, 0x9d, 0x3d,
    0x8f, 0xca, 0xc3, 0xbd, 0xac, 0xe8, 0x03, 0x3d, 0x02, 0x53,
    0x82, 0x3d, 0x63, 0xf1, 0x30, 0x3c, 0x4f, 0xff, 0x56, 0x3e,
    0x45, 0x32, 0xe9, 0xbc, 0xc6, 0xf1, 0xba, 0xbd, 0x00, 0x15,
    0x2f, 0xbd, 0x52, 0x41, 0x60, 0xbe, 0x7e, 0xf5, 0x88, 0x3e,
    0xd2, 0xe6, 0xc8, 0xbb, 0x84, 0x0e, 0x52, 0x3d, 0xfa, 0xc8,
    0x66, 0x3e, 0xc6, 0xe7, 0xd5, 0xbd, 0x9b, 0xca, 0x6b, 0xbd,
    0xa6, 0x0a, 0xf0, 0xbe, 0xb8, 0xca, 0xc2, 0xbe, 0xaa, 0x06,
    0x11, 0x3e, 0x1a, 0xc2, 0x12, 0xbc, 0x6c, 0xcb, 0xa6, 0x3d,
    0xbc, 0xe2, 0x3c, 0xbc, 0xa2, 0xb8, 0xc7, 0xbe, 0x48, 0x9e,
    0x9d, 0xbe, 0x15, 0x0d, 0xf0, 0xbe, 0x85, 0x00, 0xaa, 0xbe,
    0xa2, 0xbf, 0xbd, 0xbd, 0xb6, 0x58, 0xc3, 0xb9, 0x63, 0xcb,
    0x2a, 0x3d, 0xb5, 0xaa, 0x49, 0xbe, 0x30, 0x44, 0x13, 0xbf,
    0xbe, 0x95, 0xc7, 0xbe, 0x16, 0xbd, 0x6b, 0x3e, 0x0b, 0xff,
    0xdf, 0x3c, 0x9e, 0x4f, 0xd6, 0xbd, 0xe3, 0xfd, 0xae, 0xbc,
    0xf6, 0x77, 0x6f, 0x3d, 0xd7, 0x19, 0xbf, 0x3d, 0x47, 0xc6,
    0xa9, 0xbd, 0xf8, 0xcf, 0x21, 0xbd, 0x1a, 0xb1, 0x74, 0x3e,
    0x74, 0xdb, 0x32, 0xbe, 0xd5, 0xdf, 0x45, 0x3b, 0x51, 0xdd,
    0xbd, 0x3c, 0x8a, 0xee, 0x91, 0x3d, 0x88, 0xce, 0x2f, 0x3e,
    0xe4, 0xaf, 0xcc, 0xbd, 0x6a, 0x41, 0x22, 0xbd, 0x76, 0x2c,
    0xa5, 0x3d, 0x81, 0x98, 0x2c, 0xbe, 0x0e, 0x9c, 0x68, 0x3d,
    0x43, 0x98, 0x0a, 0x3d, 0x5d, 0x4c, 0x48, 0x3d, 0xd7, 0x54,
    0x14, 0x3e, 0x16, 0x67, 0x63, 0xbe, 0x15, 0x31, 0x10, 0x3e,
    0x80, 0x2a, 0x85, 0xbe, 0x1b, 0xcc, 0x22, 0xbc, 0x2d, 0x75,
    0x9c, 0x39, 0xcf, 0x2c, 0x7d, 0xbd, 0xe9, 0x9d, 0x0a, 0xbd,
    0x7d, 0x69, 0x42, 0xbb, 0x0d, 0xf8, 0x7b, 0xbe, 0x60, 0xc1,
    0x6a, 0x3e, 0xc3, 0x4c, 0x35, 0xbe, 0xd2, 0x70, 0x05, 0x3c,
    0xa4, 0x32, 0xb1, 0xbe, 0xb7, 0xe8, 0xe2, 0xbd, 0xfb, 0xae,
    0xdb, 0xbd, 0x36, 0x02, 0x57, 0xbe, 0x82, 0x14, 0x32, 0xbe,
    0xf5, 0x0f, 0x9e, 0xbc, 0xbf, 0xb7, 0x6c, 0x3e, 0x36, 0x08,
    0x18, 0xbe, 0x8a, 0x0a, 0x44, 0xbe, 0xbc, 0x36, 0x33, 0x3d,
    0x03, 0x33, 0xd5, 0x3c, 0xef, 0xf3, 0xdd, 0xbd, 0x76, 0x1d,
    0x0c, 0xbe, 0x23, 0x83, 0xa0, 0xbe, 0xe0, 0x78, 0x93, 0x3d,
    0xd9, 0xa8, 0x29, 0xbe, 0x7b, 0x3b, 0x36, 0x3d, 0x5b, 0xd2,
    0x90, 0x3d, 0xc4, 0x55, 0x17, 0x3e, 0xcb, 0xd2, 0xb1, 0xbc,
    0x33, 0xa6, 0x6b, 0x3d, 0x92, 0x1d, 0xa7, 0x3d, 0xa3, 0x1c,
    0x80, 0x3d, 0xcc, 0xcf, 0x3d, 0xbd, 0xf3, 0x86, 0x19, 0x3d,
    0x61, 0xfb, 0x95, 0x3d, 0x88, 0xe4, 0xce, 0x3d, 0x8c, 0x95,
    0xd3, 0x3c, 0x09, 0x34, 0x6c, 0x3d, 0xd9, 0xcc, 0x74, 0x3e,
    0x35, 0xdc, 0x65, 0x3d, 0xb8, 0x22, 0x08, 0xbe, 0x6d, 0x67,
    0x36, 0x3d, 0x68, 0x53, 0xa9, 0xbd, 0x01, 0xd6, 0x24, 0xbd,
    0x43, 0x92, 0xce, 0x3d, 0x5a, 0xd6, 0xde, 0xbe, 0xdd, 0xfb,
    0x25, 0xbd, 0x0f, 0x11, 0xaf, 0x3d, 0x57, 0x44, 0xff, 0xbd,
    0x69, 0xda, 0xc4, 0xbd, 0x41, 0x11, 0xbf, 0x3d, 0xb8, 0x0a,
    0x55, 0x3d, 0x18, 0xd5, 0x76, 0xbd, 0x4b, 0x54, 0x04, 0x3e,
    0xeb, 0x26, 0xfb, 0xbe, 0x8f, 0xbd, 0xb2, 0xbd, 0x8f, 0x64,
    0x23, 0xbe, 0xea, 0xd4, 0x13, 0xbe, 0x42, 0x26, 0x37, 0x3e,
    0x04, 0x61, 0x80, 0x3e, 0x6b, 0xbd, 0x19, 0xbe, 0x9d, 0xc6,
    0xc4, 0xbd, 0xcf, 0xc5, 0x84, 0xbd, 0x92, 0xb7, 0x9c, 0x3d,
    0x24, 0x38, 0x09, 0xbe, 0x89, 0x07, 0x49, 0xbd, 0x39, 0xdf,
    0xf0, 0x3d, 0x58, 0xb4, 0x25, 0x3e, 0x34, 0x06, 0x39, 0x3d,
    0x81, 0x9c, 0xec, 0xbd, 0x94, 0xc5, 0xf2, 0xbd, 0x83, 0xaa,
    0xa8, 0x3d, 0x2e, 0x57, 0xce, 0xbd, 0x89, 0x9a, 0xa0, 0x3d,
    0x05, 0x6b, 0x08, 0x3d, 0x9a, 0x8d, 0xa8, 0xbd, 0x34, 0x2f,
    0x02, 0x3e, 0x79, 0xb9, 0x16, 0xbe, 0xeb, 0x5e, 0x16, 0xbe,
    0x28, 0x7d, 0x83, 0xbd, 0xe2, 0x3b, 0x3b, 0xbd, 0x1d, 0xa4,
    0x2f, 0x3d, 0x1b, 0x74, 0xb4, 0x3d, 0xec, 0x81, 0x64, 0xbc,
    0x81, 0x0d, 0xbe, 0x3d, 0x8d, 0x8c, 0xbd, 0xbd, 0x5e, 0xa3,
    0xcf, 0x3d, 0x52, 0xba, 0x6c, 0xbe, 0x63, 0x3d, 0xc2, 0xbd,
    0x1f, 0x70, 0x2e, 0xbe, 0xdc, 0xa2, 0x04, 0xbd, 0x6f, 0xbb,
    0xff, 0x3c, 0x61, 0xcb, 0x95, 0xbd, 0xd5, 0x0b, 0x3b, 0xbe,
    0xf8, 0x67, 0xf0, 0xbc, 0xcf, 0xad, 0x14, 0x3d, 0x3f, 0x34,
    0xeb, 0xbd, 0x49, 0x13, 0x9a, 0x3d, 0x5b, 0x18, 0xa9, 0x3e,
    0x8b, 0x84, 0x48, 0x3e, 0xef, 0xb4, 0x22, 0x3e, 0x34, 0x44,
    0x74, 0xbc, 0x69, 0xc3, 0x4b, 0xbd, 0xf0, 0x95, 0x74, 0x3c,
    0x55, 0xdf, 0x65, 0xbe, 0x67, 0xed, 0xd0, 0x3a, 0x34, 0x68,
    0x94, 0x3e, 0x0c, 0x58, 0xab, 0x3e, 0xd5, 0x21, 0x3e, 0xbc,
    0x63, 0xa2, 0x4b, 0xbd, 0x7c, 0xac, 0xf6, 0xbd, 0xea, 0xdc,
    0x29, 0xbd, 0x66, 0xdc, 0x57, 0xbd, 0x82, 0x1b, 0xae, 0xbd,
    0x27, 0x87, 0x2d, 0x3e, 0x1c, 0x69, 0x0e, 0x3e, 0xf2, 0x9c,
    0xa1, 0xbd, 0x99, 0xae, 0x49, 0xbd, 0xdb, 0x7d, 0x53, 0x3e,
    0x72, 0x52, 0x9b, 0x3c, 0x87, 0x95, 0x7a, 0x3d, 0x4c, 0x0d,
    0x2b, 0xbd, 0xc3, 0x43, 0x27, 0x3d, 0x93, 0x85, 0xbb, 0x3d,
    0xf5, 0xdc, 0xba, 0x3c, 0x11, 0xf4, 0x60, 0xbd, 0x3d, 0xad,
    0x0a, 0x3e, 0x03, 0x2a, 0x21, 0xbd, 0x86, 0xf9, 0xfc, 0x3b,
    0xbc, 0x12, 0x29, 0xbe, 0x14, 0xfa, 0x96, 0xbe, 0xd9, 0x40,
    0xdf, 0xbd, 0xfb, 0x34, 0xd6, 0xbb, 0x88, 0xa2, 0x40, 0x3e,
    0xd3, 0x3e, 0xc6, 0x3d, 0xbc, 0xc1, 0x1b, 0xbd, 0x16, 0x75,
    0x8c, 0xbd, 0x72, 0xdf, 0x16, 0x3e, 0xb2, 0x45, 0xd1, 0x3c,
    0x87, 0x4e, 0xb4, 0x3d, 0x33, 0xd1, 0x65, 0x3e, 0xbd, 0xa1,
    0x90, 0x3d, 0x77, 0xf6, 0x3a, 0xba, 0xa5, 0xf2, 0xd4, 0xbd,
    0x92, 0x03, 0x82, 0x3e, 0x00, 0x1d, 0x13, 0x3e, 0x9e, 0x8e,
    0x3a, 0x3d, 0x90, 0x15, 0x52, 0xbd, 0xfd, 0x0f, 0xc3, 0x3d,
    0xa9, 0x73, 0x7f, 0x3d, 0x66, 0x6a, 0x77, 0xbd, 0xfd, 0xcb,
    0x95, 0xbe, 0x3c, 0xa6, 0x81, 0x3e, 0x25, 0x31, 0x35, 0x3e,
    0x59, 0xb1, 0xb8, 0xbd, 0xb1, 0x52, 0x81, 0xbd, 0xe2, 0x27,
    0x4b, 0xbe, 0xa1, 0x8e, 0x5b, 0x3d, 0xcd, 0xb3, 0xea, 0x3c,
    0xbe, 0x7d, 0xcb, 0xbe, 0x7b, 0x20, 0x61, 0x3e, 0xbc, 0x9e,
    0x30, 0x3e, 0xc2, 0x0d, 0x79, 0xbd, 0x14, 0xf6, 0x8f, 0xbc,
    0x78, 0xb7, 0xcd, 0xbd, 0x4b, 0x3f, 0xcc, 0x3e, 0x1b, 0xb3,
    0x07, 0x3e, 0xce, 0x0d, 0xb0, 0xbe, 0xb4, 0x24, 0xc9, 0x3e,
    0x72, 0xc1, 0xe9, 0xbd, 0x90, 0x03, 0x1e, 0xbd, 0x29, 0xf2,
    0xd9, 0xbc, 0x87, 0x89, 0xdf, 0xbe, 0xcb, 0x28, 0xee, 0x3e,
    0x13, 0xaa, 0xa1, 0x3e, 0xbe, 0x76, 0x8d, 0xbe, 0xb1, 0xd4,
    0x72, 0x3d, 0x6f, 0x6a, 0x6c, 0x3d, 0xf7, 0x36, 0xf3, 0x3b,
    0x32, 0xff, 0x02, 0x3d, 0xba, 0xfd, 0x83, 0x3b, 0x9c, 0xd5,
    0x88, 0x3d, 0x53, 0x50, 0xe5, 0xbc, 0xb9, 0x9c, 0xe4, 0xbe,
    0x7a, 0xa5, 0xa7, 0x3d, 0x29, 0x22, 0x62, 0x3b, 0x16, 0x55,
    0xb7, 0x3c, 0x74, 0xf5, 0x63, 0x3c, 0xaa, 0x27, 0xcc, 0xbd,
    0x83, 0x75, 0xc9, 0x3d, 0xf0, 0xfa, 0xc4, 0x3d, 0xb9, 0x03,
    0x22, 0xbf, 0xdf, 0x57, 0x4d, 0x3d, 0x3b, 0x60, 0xa5, 0xbe,
    0x6d, 0x2a, 0x83, 0xbc, 0x5d, 0x4f, 0x57, 0xbc, 0x65, 0xc1,
    0x33, 0xbf, 0xc6, 0x97, 0x2d, 0x3d, 0x6a, 0x3d, 0xfe, 0xbc,
    0x80, 0x38, 0x12, 0xbf, 0x4f, 0xe6, 0x78, 0x3e, 0xb3, 0x87,
    0xd6, 0xbd, 0xd9, 0xee, 0x9c, 0x3c, 0x68, 0xef, 0x25, 0xbd,
    0xd3, 0xcb, 0xc4, 0xbe, 0x99, 0x90, 0x8d, 0x3e, 0xc9, 0xa4,
    0x85, 0x3e, 0x23, 0x09, 0xc2, 0xbe, 0x7a, 0xab, 0x77, 0x3e,
    0x95, 0xf6, 0xaf, 0xbe, 0xa3, 0xab, 0x2e, 0x3c, 0x68, 0xc6,
    0x8f, 0x3c, 0x8a, 0xc8, 0x0f, 0xbf, 0x0e, 0x81, 0x8d, 0x3e,
    0xcb, 0x0f, 0x9b, 0x3e, 0xf1, 0x3e, 0x85, 0xbe, 0xb5, 0x25,
    0x71, 0x3d, 0x9e, 0x53, 0xa9, 0x3d, 0x9b, 0xea, 0x5a, 0x3d,
    0xb3, 0x33, 0x90, 0x3d, 0xe7, 0xfe, 0x60, 0xbd, 0x12, 0x2f,
    0xf7, 0x3d, 0xdd, 0xb0, 0xe4, 0x3d, 0x5b, 0x87, 0x88, 0xbe,
    0x8c, 0x9a, 0x94, 0x3d, 0x55, 0x44, 0x53, 0x3d, 0x16, 0xc5,
    0x88, 0xbd, 0x36, 0xf1, 0x57, 0xbd, 0x6c, 0x21, 0x07, 0x3d,
    0x67, 0xe1, 0x91, 0xbd, 0x49, 0x0c, 0x9d, 0x3d, 0x95, 0xda,
    0xb4, 0xbe, 0x70, 0x96, 0xe3, 0xbd, 0x4f, 0x2a, 0x23, 0xbd,
    0x15, 0x04, 0xaa, 0x3d, 0xd0, 0x3d, 0xa6, 0xbc, 0xa3, 0x18,
    0xbb, 0xbd, 0x7c, 0xf2, 0xdc, 0xbd, 0x04, 0xf8, 0x85, 0xbe,
    0xa6, 0xaf, 0xf2, 0xbe, 0x26, 0xb1, 0xf7, 0x3d, 0xf9, 0x18,
    0x3a, 0x3d, 0xfc, 0x77, 0xbd, 0x3d, 0x32, 0x58, 0x9c, 0xb9,
    0xf4, 0x82, 0x69, 0xbe, 0xed, 0xe7, 0x95, 0x3d, 0x58, 0xcf,
    0x44, 0x3d, 0xf8, 0x72, 0x2e, 0xbe, 0x34, 0x7b, 0x1a, 0x3e,
    0xde, 0xea, 0x94, 0xbe, 0x44, 0x58, 0x77, 0x3c, 0x5a, 0x17,
    0x6c, 0x3d, 0x84, 0x5b, 0x54, 0xbe, 0xa3, 0x70, 0x9b, 0xbe,
    0x1c, 0xb0, 0xbf, 0xbd, 0xa8, 0x28, 0x2e, 0x3e, 0x53, 0x9c,
    0xe3, 0x3d, 0xaf, 0x6d, 0xdc, 0x3d, 0xab, 0x23, 0x8a, 0xbe,
    0xf5, 0xbe, 0x15, 0xbe, 0xe1, 0x74, 0x49, 0x3e, 0x00, 0x10,
    0x65, 0x3c, 0xc5, 0x7d, 0xf0, 0x3d, 0x5b, 0x2b, 0x00, 0x3e,
    0x85, 0x36, 0x2e, 0xbd, 0x63, 0xc3, 0x8f, 0x3d, 0x49, 0x95,
    0x06, 0xbe, 0x3f, 0xce, 0x4d, 0xbe, 0x71, 0x78, 0x2b, 0x3e,
    0xff, 0x81, 0x18, 0xbe, 0x23, 0x6c, 0xa9, 0xbd, 0x09, 0x1f,
    0x05, 0x3e, 0x16, 0x52, 0x75, 0xbd, 0xef, 0xa7, 0xf4, 0x3d,
    0xeb, 0x66, 0x3e, 0xbb, 0x61, 0x42, 0x07, 0x3d, 0x88, 0x07,
    0x14, 0x3e, 0xd2, 0xe8, 0xfe, 0xbd, 0xec, 0xe3, 0x8f, 0xbc,
    0x30, 0x70, 0x09, 0x3e, 0x34, 0xd6, 0x09, 0x3d, 0x09, 0xfa,
    0xbc, 0x3d, 0x1f, 0x59, 0x25, 0xbb, 0xf6, 0x32, 0x07, 0x3e,
    0xb8, 0xee, 0x0f, 0x3e, 0xc2, 0xb3, 0xc1, 0xbe, 0x99, 0x0c,
    0x20, 0xbe, 0xbc, 0xa6, 0x51, 0x3e, 0x26, 0xe7, 0x84, 0xbe,
    0xeb, 0xcd, 0x68, 0x3d, 0xf4, 0xed, 0x28, 0xbe, 0x29, 0xd4,
    0x7a, 0xbd, 0x20, 0x20, 0x2f, 0x3e, 0x0f, 0x28, 0x02, 0x3d,
    0x59, 0x76, 0xdb, 0xbe, 0x2c, 0x5b, 0x0e, 0x3e, 0xa5, 0x22,
    0x99, 0xbd, 0xca, 0x81, 0x1a, 0xbe, 0x34, 0xd3, 0x15, 0xbe,
    0x2f, 0x3b, 0x51, 0xbe, 0x77, 0x87, 0xa1, 0xbd, 0xd2, 0xf4,
    0x5c, 0xbe, 0xe9, 0x94, 0x80, 0xbe, 0x91, 0x53, 0x05, 0x3e,
    0x11, 0x82, 0x45, 0x3d, 0xeb, 0x8a, 0x02, 0xbe, 0x91, 0xe6,
    0x2f, 0xbe, 0xd5, 0xdb, 0x53, 0xbe, 0x77, 0x8f, 0xd4, 0xbd,
    0xac, 0xd3, 0xd5, 0x3c, 0xd0, 0x22, 0x0c, 0xbd, 0x04, 0x9b,
    0x1e, 0x3d, 0xab, 0x03, 0x04, 0x3e, 0xdd, 0x88, 0xb3, 0xbc,
    0x89, 0x47, 0xda, 0xbe, 0x6a, 0xdf, 0x95, 0xbe, 0xf8, 0xdb,
    0xf9, 0xbd, 0xff, 0x92, 0x30, 0x3e, 0xd7, 0x91, 0x44, 0x3e,
    0xd9, 0x8d, 0xa7, 0xbc, 0x3f, 0xe7, 0xd5, 0x3d, 0xca, 0xb2,
    0x43, 0x3d, 0x50, 0xb4, 0xda, 0xbe, 0x7c, 0x71, 0x34, 0xbf,
    0xd0, 0xbc, 0x82, 0x3d, 0x30, 0x84, 0xff, 0x3d, 0x24, 0x3e,
    0x72, 0x3b, 0x50, 0x74, 0xd9, 0xbd, 0xed, 0xa6, 0x09, 0xbe,
    0x60, 0xc0, 0x64, 0xbe, 0x2e, 0x6d, 0xb1, 0xbc, 0x25, 0x48,
    0x85, 0xbe, 0xca, 0x03, 0x9e, 0xbc, 0xa8, 0xe4, 0x2a, 0xbe,
    0xb5, 0xb8, 0xf9, 0xbd, 0x9f, 0x16, 0x25, 0x3e, 0x19, 0x0d,
    0x3a, 0xbe, 0x21, 0xe7, 0x0c, 0x3e, 0x02, 0x85, 0xc7, 0xbd,
    0x5e, 0xe5, 0xc8, 0xbd, 0xd7, 0x62, 0xf8, 0xbd, 0xd6, 0xa0,
    0x97, 0xbd, 0x2b, 0x24, 0xa6, 0xbd, 0x51, 0xcd, 0x24, 0xbe,
    0xee, 0x17, 0x44, 0x3e, 0xcf, 0x04, 0x3c, 0xbd, 0x14, 0x97,
    0x04, 0x3d, 0x90, 0x88, 0x16, 0xbd, 0x7e, 0x71, 0x85, 0xbe,
    0xf7, 0xbd, 0x08, 0xbd, 0x0d, 0x22, 0xbb, 0xbd, 0x5a, 0x5f,
    0xc9, 0x3c, 0xf6, 0xba, 0xb2, 0x3c, 0xe5, 0x8e, 0xc8, 0xbd,
    0x37, 0x90, 0x17, 0xbd, 0x3e, 0xc3, 0xe7, 0x3b, 0xa5, 0x5a,
    0x10, 0xbe, 0xf9, 0x3b, 0xe9, 0xbd, 0xa1, 0xa7, 0x95, 0xbd,
    0x35, 0x35, 0xa1, 0x3e, 0xa6, 0x18, 0x10, 0xbe, 0xb6, 0xf7,
    0x8f, 0xbd, 0xd7, 0xa0, 0xe2, 0xbc, 0xa4, 0x71, 0x58, 0x3d,
    0xb4, 0xa1, 0xb7, 0x3c, 0x37, 0xea, 0xb0, 0xbd, 0xc7, 0x0a,
    0x79, 0xbd, 0x5e, 0x7f, 0x83, 0x3e, 0xfa, 0x24, 0x0a, 0xbe,
    0x2b, 0xf0, 0xb3, 0x3d, 0x10, 0x8f, 0x02, 0x3d, 0x2c, 0x0f,
    0x59, 0x3d, 0x77, 0x37, 0x7f, 0x3e, 0x5d, 0x16, 0xa9, 0x3e,
    0xa3, 0xb1, 0x2b, 0x3e, 0xc0, 0x0e, 0xc9, 0xbe, 0xc4, 0xc5,
    0x0d, 0xbd, 0xfd, 0x1e, 0xd3, 0xbb, 0x09, 0x3f, 0x36, 0xbe,
    0x75, 0xff, 0x92, 0xbe, 0xdd, 0xef, 0x42, 0xbe, 0xb7, 0xe7,
    0xca, 0x3c, 0x50, 0x61, 0x1c, 0xbe, 0x84, 0x23, 0xe0, 0xbe,
    0x16, 0x6d, 0xe3, 0xba, 0x4f, 0x45, 0x07, 0xbc, 0x85, 0xaa,
    0xf7, 0xbc, 0x10, 0x37, 0xa2, 0xbc, 0xcc, 0x57, 0xe5, 0xbd,
    0x3f, 0x05, 0x21, 0x3d, 0xe0, 0xf4, 0xfe, 0x36, 0x65, 0x6c,
    0x02, 0x3e, 0x68, 0x1f, 0xaa, 0x3c, 0x23, 0x09, 0x3b, 0xbe,
    0x15, 0xba, 0xa0, 0x3d, 0x95, 0x1f, 0x4d, 0x3d, 0x02, 0xa5,
    0x8d, 0xbd, 0x71, 0x97, 0x14, 0xbc, 0xac, 0xc5, 0x70, 0xbc,
    0x54, 0xb8, 0x80, 0x3e, 0x26, 0x9b, 0xc1, 0xbe, 0xcc, 0xb7,
    0x52, 0xbc, 0x03, 0xd6, 0x1b, 0x3e, 0x9f, 0x3f, 0x89, 0x3d,
    0x2f, 0x47, 0x35, 0x3e, 0x17, 0x2c, 0x90, 0xbe, 0x1f, 0x81,
    0x9b, 0xbe, 0x81, 0xa6, 0xa6, 0x3e, 0x7b, 0x33, 0x02, 0xbf,
    0xba, 0xe7, 0x7a, 0x3e, 0x24, 0x5d, 0xce, 0x3d, 0x88, 0xd3,
    0x88, 0x3d, 0x80, 0x28, 0xb0, 0x3e, 0xef, 0x28, 0x67, 0x3e,
    0xbe, 0xd5, 0xcb, 0xbe, 0xa9, 0xea, 0x07, 0xbc, 0x2d, 0x23,
    0xad, 0xbd, 0x1e, 0xeb, 0x70, 0xbc, 0xb3, 0xbd, 0x09, 0xbe,
    0xab, 0xb5, 0x3b, 0xbe, 0x32, 0xc1, 0x24, 0xbd, 0xbe, 0xd3,
    0x04, 0x3d, 0xb9, 0xf5, 0x40, 0xbe, 0x90, 0xd3, 0x2d, 0xb8,
    0x7e, 0x15, 0x45, 0x3b, 0x5f, 0x82, 0xcb, 0x3d, 0xf0, 0x9b,
    0xae, 0xbd, 0x4f, 0xeb, 0x24, 0xbe, 0xdf, 0xa9, 0x9b, 0x3d,
    0xda, 0xd4, 0x6b, 0xbc, 0x69, 0xb7, 0x59, 0xbc, 0xc6, 0xd4,
    0xa3, 0x3d, 0xdb, 0x6b, 0x1e, 0x3c, 0x18, 0x8e, 0xec, 0x3b,
    0x6b, 0xc2, 0xd4, 0x3d, 0xe2, 0x95, 0xb7, 0x3d, 0x5b, 0x81,
    0x40, 0x3d, 0x95, 0x68, 0x02, 0xbf, 0x30, 0x1e, 0x4f, 0xbe,
    0x76, 0xaa, 0x49, 0x3e, 0xc8, 0x29, 0x0d, 0xbf, 0x8e, 0x19,
    0x2f, 0x3d, 0x19, 0xa4, 0x3d, 0x3e, 0xf8, 0xbc, 0x06, 0x3e,
    0xe6, 0x8c, 0x9b, 0x3d, 0x02, 0x54, 0xf2, 0xbe, 0x9f, 0x29,
    0x12, 0xbf, 0x61, 0x01, 0x7c, 0x3e, 0x05, 0xac, 0x23, 0xbf,
    0xbf, 0xd6, 0x84, 0x3c, 0xf3, 0x0e, 0x0c, 0x3e, 0x7a, 0xda,
    0x28, 0x3e, 0x5f, 0x13, 0x3d, 0x3e, 0x7b, 0x24, 0x09, 0xbf,
    0xda, 0xe2, 0x4e, 0xbf, 0x04, 0x17, 0x2b, 0x3e, 0xf1, 0x8d,
    0xcf, 0xbd, 0x79, 0x0c, 0x61, 0x3c, 0xf7, 0x9f, 0x25, 0x3e,
    0x53, 0xc1, 0xda, 0x3d, 0xc4, 0xbb, 0x54, 0x3d, 0x6f, 0xd2,
    0x8e, 0xbc, 0x3e, 0x1a, 0x30, 0xbe, 0x6f, 0xcb, 0xdd, 0x3d,
    0x6f, 0xf1, 0xb7, 0xbd, 0x44, 0x55, 0xae, 0xb9, 0xff, 0x6d,
    0xec, 0x3d, 0x65, 0x94, 0x07, 0x3e, 0xd6, 0x78, 0xd6, 0x3d,
    0x28, 0xdd, 0x64, 0xbe, 0x1a, 0xcc, 0xc1, 0xbd, 0xe2, 0x00,
    0x3c, 0x3d, 0xba, 0x35, 0x0e, 0xbe, 0x55, 0xd9, 0x15, 0x3d,
    0xdd, 0xd7, 0x81, 0x3a, 0x33, 0x23, 0xb1, 0xbd, 0x4e, 0xb6,
    0xbf, 0x3d, 0xc6, 0xaf, 0x31, 0xbd, 0xa0, 0x87, 0xdf, 0xbd,
    0xa9, 0x1a, 0xd6, 0xbd, 0x08, 0xf8, 0xd8, 0xbc, 0xd2, 0x3a,
    0x93, 0xbc, 0x8d, 0x14, 0xb3, 0x3d, 0xd4, 0x76, 0x8e, 0x3d,
    0xc6, 0x0b, 0x9c, 0x3d, 0x75, 0x3b, 0x3c, 0x3c, 0xd5, 0xc4,
    0x4c, 0x3d, 0x83, 0xc1, 0xf7, 0xbe, 0x78, 0x69, 0x89, 0xbd,
    0x0f, 0xd4, 0x13, 0xbe, 0x10, 0x59, 0xc6, 0x3c, 0x11, 0x23,
    0xd6, 0xbb, 0xc9, 0x4a, 0x99, 0xbd, 0xf3, 0x11, 0xba, 0xbe,
    0x81, 0x2e, 0xcf, 0xbd, 0x72, 0x8a, 0xfb, 0x3c, 0x82, 0xad,
    0x12, 0xbe, 0x08, 0x7e, 0x26, 0x3d, 0x05, 0x3e, 0x86, 0x3e,
    0xde, 0xa2, 0x8b, 0x3d, 0xe8, 0xf8, 0xec, 0x3d, 0x34, 0xac,
    0xff, 0x3c, 0x58, 0x8f, 0x0a, 0xbe, 0x25, 0x18, 0x8f, 0x3d,
    0x2a, 0xdc, 0x2d, 0xbe, 0x2e, 0x26, 0x92, 0x3d, 0x49, 0x5b,
    0x84, 0x3e, 0x26, 0xf9, 0x92, 0x3e, 0x2c, 0xc6, 0xff, 0x3c,
    0x70, 0xe4, 0x0e, 0xbd, 0x5a, 0x14, 0x01, 0xbe, 0xc4, 0x77,
    0xd4, 0x3c, 0x5e, 0x7a, 0x88, 0xbc, 0x88, 0x4a, 0x55, 0xbd,
    0xbb, 0xa8, 0x24, 0x3e, 0x45, 0xd2, 0x0d, 0x3e, 0xcf, 0x63,
    0x65, 0xbd, 0xfa, 0x89, 0xc9, 0xbd, 0xe6, 0x63, 0x8a, 0x3d,
    0x40, 0x45, 0x7e, 0xbc, 0xa4, 0x81, 0x44, 0x3d, 0xdb, 0x3e,
    0xab, 0xbd, 0x24, 0xbb, 0xb1, 0x3d, 0x06, 0x50, 0xb1, 0x3d,
    0xcd, 0xbf, 0x86, 0xbd, 0xe6, 0x8c, 0x38, 0x3e, 0xd4, 0x3e,
    0xea, 0x3d, 0xc0, 0x2a, 0x02, 0xbe, 0x65, 0xf8, 0x78, 0x3d,
    0x89, 0x81, 0x26, 0xbe, 0x9b, 0x5f, 0xce, 0x3d, 0x0c, 0x4b,
    0xd7, 0x3b, 0xea, 0x69, 0x2d, 0xbe, 0x64, 0x38, 0xa2, 0x3d,
    0x91, 0x26, 0x89, 0x3e, 0xde, 0x71, 0x62, 0xbe, 0xd7, 0xa9,
    0x36, 0x3d, 0xfb, 0xca, 0x55, 0x3e, 0xc3, 0xb5, 0xba, 0xbd,
    0xe6, 0x6e, 0x14, 0xbe, 0xff, 0x8b, 0x9f, 0x3d, 0xac, 0xfb,
    0x97, 0x3d, 0xe3, 0x18, 0x1c, 0x3e, 0x11, 0x2e, 0x3b, 0xbd,
    0xce, 0x70, 0x9e, 0x3e, 0x96, 0x81, 0x57, 0x3d, 0x21, 0xa8,
    0x86, 0xbd, 0x0c, 0x70, 0xd6, 0xbd, 0xf8, 0xfc, 0x52, 0xbe,
    0x22, 0x5e, 0x8d, 0x3d, 0x37, 0x48, 0x9f, 0x3c, 0x89, 0xc2,
    0xec, 0x3c, 0x3b, 0x18, 0x66, 0x3e, 0x8a, 0xf2, 0xa9, 0x3d,
    0xbd, 0x13, 0xf0, 0xbd, 0x39, 0x57, 0x1b, 0xbd, 0x65, 0xdb,
    0xaf, 0xbe, 0xa9, 0x0e, 0xe8, 0x3d, 0xb7, 0xb2, 0xe4, 0x3d,
    0xe9, 0xe8, 0xa0, 0x3e, 0x6a, 0x10, 0x84, 0x3e, 0xed, 0xae,
    0xfe, 0xbd, 0x51, 0x6f, 0x0d, 0xbe, 0xca, 0x86, 0x20, 0x3d,
    0x1f, 0x5c, 0xaf, 0xbc, 0xae, 0xd5, 0xa3, 0x3e, 0x73, 0xb3,
    0x33, 0x3e, 0xe2, 0xe2, 0x00, 0x3f, 0xa9, 0xa3, 0xe6, 0x3d,
    0x05, 0xec, 0x82, 0x3e, 0xae, 0xc7, 0x2a, 0xbe, 0x6d, 0xf7,
    0x39, 0xbd, 0x69, 0x3b, 0x3d, 0x3e, 0xff, 0xfe, 0x4a, 0x3e,
    0x5f, 0xc8, 0xbb, 0xbd, 0x2c, 0x24, 0x8a, 0xbe, 0x3d, 0x55,
    0x85, 0x3d, 0x0c, 0x5f, 0xea, 0x3c, 0x8f, 0x6d, 0xca, 0xbd,
    0x79, 0x05, 0x95, 0xbd, 0x8d, 0x4b, 0x3e, 0xbe, 0x2e, 0xf0,
    0xa4, 0x3d, 0x1c, 0xd2, 0x01, 0x3d, 0x02, 0x4e, 0x97, 0xbe,
    0xa1, 0x23, 0xb4, 0x3d, 0xf8, 0x5f, 0xd9, 0xbd, 0x7c, 0x37,
    0x5a, 0x3c, 0x84, 0x61, 0xae, 0xbd, 0x2d, 0x0d, 0xeb, 0xbe,
    0xd5, 0xea, 0xc1, 0x3d, 0x97, 0xca, 0x5b, 0x3d, 0x38, 0xb8,
    0x44, 0xbc, 0x9c, 0x55, 0xa3, 0x3d, 0x5b, 0xe4, 0xcd, 0xbe,
    0xee, 0xdf, 0x48, 0xbc, 0xdf, 0x00, 0xf2, 0xbc, 0x81, 0x5f,
    0x08, 0xbf, 0xb8, 0xd5, 0xbb, 0x3d, 0x7b, 0x9e, 0xa4, 0x3d,
    0x10, 0xbe, 0x84, 0x3e, 0xba, 0x59, 0xe1, 0x3c, 0x6a, 0x62,
    0xa3, 0xbe, 0x85, 0xc3, 0x15, 0x3e, 0xe5, 0x7d, 0xca, 0x3c,
    0x63, 0xbe, 0x2a, 0xbe, 0xdf, 0x3b, 0x57, 0x3e, 0xb9, 0x12,
    0x18, 0x3e, 0x95, 0xd8, 0xbd, 0x3e, 0xa3, 0xd0, 0xe8, 0xbe,
    0x3c, 0xe6, 0x59, 0xbd, 0xd9, 0xf5, 0x5f, 0x3e, 0x88, 0xd3,
    0x8f, 0x3b, 0x78, 0x43, 0x42, 0x3e, 0x2e, 0xeb, 0xc3, 0x3e,
    0xa8, 0xee, 0x2c, 0xbd, 0xc6, 0x19, 0xe3, 0xbe, 0xc4, 0x35,
    0x84, 0x3d, 0x88, 0x18, 0xaf, 0x3d, 0xaf, 0xc5, 0xe0, 0xbd,
    0x9e, 0x96, 0x2e, 0xbd, 0x21, 0xe6, 0x05, 0xbe, 0x52, 0x24,
    0x21, 0x3e, 0xf2, 0x5b, 0x94, 0x3c, 0xf8, 0xfb, 0xf6, 0xbe,
    0xb2, 0x90, 0x79, 0x3d, 0x37, 0xb3, 0x12, 0x3d, 0x6f, 0x47,
    0xc2, 0xbd, 0xdb, 0xb9, 0xdc, 0xbd, 0x9d, 0x3b, 0x89, 0xbe,
    0xf8, 0x16, 0x15, 0x3b, 0x91, 0x74, 0xb7, 0x3d, 0xa0, 0xf5,
    0x7e, 0xbe, 0x23, 0xad, 0xb0, 0x3c, 0xf6, 0x12, 0x9b, 0xbe,
    0xab, 0x0a, 0xd8, 0x3d, 0xcf, 0xd2, 0x6d, 0xbd, 0xc5, 0x48,
    0xb3, 0xbe, 0xfd, 0x2b, 0xd7, 0xbb, 0xeb, 0xa3, 0xc8, 0x3d,
    0x45, 0xc3, 0x11, 0xba, 0xdb, 0x83, 0x6d, 0xbe, 0xb7, 0xb5,
    0x84, 0xbc, 0x85, 0x82, 0x84, 0x3e, 0x92, 0xc5, 0x4f, 0x3e,
    0xb9, 0x55, 0xee, 0xbd, 0xee, 0x01, 0xac, 0xbd, 0xdf, 0xc1,
    0x0c, 0x3d, 0x3f, 0x6a, 0x5d, 0xbe, 0x2e, 0x71, 0xe4, 0xbd,
    0xbf, 0x12, 0x5e, 0x3e, 0xff, 0xe6, 0x92, 0x3e, 0xfb, 0x0a,
    0x93, 0x3e, 0xaa, 0x4e, 0x14, 0x3e, 0xa5, 0xe4, 0x8e, 0xbe,
    0xb3, 0xf3, 0x5d, 0xbd, 0xc0, 0x5a, 0xc2, 0xbe, 0xbe, 0x4b,
    0x02, 0x3d, 0x27, 0xa6, 0x90, 0x3d, 0x32, 0xd3, 0xcb, 0xbe,
    0xce, 0x0b, 0xf7, 0xbe, 0xea, 0xaf, 0x30, 0xbd, 0x0b, 0xa8,
    0x94, 0x3d, 0x1a, 0x78, 0xd2, 0xbd, 0xf8, 0x30, 0x18, 0xbf,
    0xfc, 0x80, 0xea, 0x3c, 0xbf, 0x35, 0xd3, 0x3d, 0xf7, 0x5e,
    0x5a, 0xbe, 0xe0, 0x59, 0x96, 0xbe, 0x18, 0x69, 0xcd, 0x3b,
    0xad, 0xfb, 0x90, 0x3c, 0xf9, 0x2f, 0x41, 0x3d, 0x98, 0x04,
    0x7a, 0xbe, 0xcb, 0xb7, 0x45, 0x3d, 0x98, 0x02, 0xcd, 0xbd,
    0x3c, 0x09, 0x0c, 0xbe, 0x2b, 0xa8, 0x17, 0xbe, 0xff, 0xe5,
    0x60, 0xbe, 0x30, 0x36, 0x69, 0xbd, 0xdf, 0xe6, 0xca, 0xbd,
    0x38, 0x24, 0x79, 0xbe, 0x9a, 0x1c, 0x53, 0xbd, 0x0d, 0xb5,
    0x82, 0xbc, 0xf1, 0xf2, 0x1a, 0x3e, 0x1a, 0xa1, 0x9f, 0x3d,
    0x81, 0xb0, 0x2a, 0xbb, 0x10, 0xeb, 0xd9, 0xbd, 0x60, 0xce,
    0x95, 0x3d, 0xaa, 0x7a, 0xf8, 0xbd, 0x47, 0xb8, 0x04, 0x3e,
    0x00, 0x53, 0x17, 0x3d, 0x2e, 0x58, 0xa4, 0xbc, 0x3a, 0x84,
    0x8b, 0x3d, 0x08, 0x47, 0xfb, 0xbc, 0xe7, 0xee, 0x0d, 0xbd,
    0xda, 0xd3, 0x5e, 0x3e, 0xe3, 0xcd, 0x59, 0xbd, 0xc1, 0xf6,
    0x30, 0xbe, 0x10, 0x27, 0xbc, 0xbc, 0x51, 0x4c, 0xb9, 0xbe,
    0x0b, 0x4b, 0x0f, 0xbf, 0xca, 0x43, 0xb5, 0xbd, 0x36, 0xdd,
    0x74, 0xbd, 0x3d, 0x0d, 0x28, 0xbe, 0xd1, 0x23, 0x00, 0x3d,
    0x37, 0xec, 0xf5, 0x3c, 0x77, 0x9d, 0x24, 0x3e, 0x6f, 0x85,
    0xb3, 0xbe, 0x29, 0x11, 0xdf, 0xbe, 0x8b, 0x8b, 0x91, 0x3d,
    0x58, 0x63, 0x03, 0xbe, 0x34, 0xb0, 0x99, 0xbe, 0xb1, 0x9c,
    0x2d, 0x3c, 0xca, 0x41, 0x87, 0xbe, 0x33, 0xf8, 0x7d, 0x3d,
    0xae, 0x63, 0x07, 0xbd, 0xb2, 0x4d, 0x8f, 0xbd, 0x18, 0x2d,
    0x8b, 0x3d, 0xbc, 0x1d, 0x2d, 0xbf, 0xc6, 0xbe, 0xda, 0xbe,
    0x37, 0x7f, 0xa0, 0x3d, 0x2a, 0x02, 0x95, 0xbd, 0x67, 0x1b,
    0xb3, 0x3d, 0xdb, 0xe5, 0xa0, 0xbb, 0x16, 0xd6, 0x28, 0x3e,
    0xc7, 0x82, 0x2e, 0x3e, 0x94, 0x09, 0x01, 0xbf, 0x4c, 0x12,
    0x51, 0xbe, 0x2e, 0x0d, 0x8f, 0x3d, 0x16, 0x34, 0xbc, 0x3c,
    0x42, 0xd9, 0xd8, 0x3d, 0xa0, 0xe1, 0x94, 0xbe, 0xdf, 0x0d,
    0x0f, 0x3d, 0xf8, 0x49, 0xdf, 0x3d, 0xee, 0xfb, 0x57, 0x3e,
    0x68, 0xd2, 0xac, 0xbc, 0xf3, 0xc0, 0xe6, 0xbd, 0x6c, 0x63,
    0x73, 0xbe, 0x80, 0xf0, 0x1c, 0x3d, 0x9a, 0x9b, 0xa7, 0x3d,
    0xf2, 0xf2, 0xdf, 0x3d, 0x86, 0xd0, 0xd5, 0x3d, 0xf7, 0xe8,
    0xdf, 0xbd, 0x5e, 0x44, 0x99, 0xbd, 0x2c, 0x10, 0x8c, 0x3b,
    0xf9, 0xd8, 0x47, 0xbe, 0xbd, 0x98, 0x09, 0xbe, 0xed, 0xe5,
    0x3c, 0x3d, 0x41, 0x08, 0x29, 0xbc, 0x4e, 0xbe, 0xba, 0xbc,
    0x10, 0x01, 0xc1, 0xbc, 0x17, 0xb6, 0x57, 0xbe, 0x8a, 0xc1,
    0x3e, 0x3e, 0xa1, 0x8f, 0xbb, 0xbe, 0xb0, 0x13, 0x9b, 0xbe,
    0xd3, 0xc2, 0x56, 0xbc, 0x68, 0x66, 0x16, 0x3b, 0xd0, 0x21,
    0x2e, 0xbe, 0x4c, 0x23, 0xaa, 0xbe, 0x8f, 0x49, 0x88, 0xbe,
    0x35, 0xd0, 0x8b, 0xbc, 0xbf, 0xa1, 0x5c, 0xbe, 0x3c, 0x67,
    0x2c, 0xbf, 0xab, 0x8a, 0x7a, 0xbc, 0xe6, 0xdd, 0x9f, 0x3c,
    0x31, 0x2f, 0xaf, 0xbe, 0xab, 0x39, 0x3f, 0xbe, 0x0b, 0xbb,
    0x03, 0xbe, 0xc8, 0x9b, 0x6f, 0xbd, 0x63, 0x76, 0x35, 0x3d,
    0xc5, 0x9f, 0xd8, 0xbe, 0x03, 0x85, 0x1f, 0x3c, 0x1a, 0xa2,
    0xb2, 0xba, 0x9d, 0x96, 0xe4, 0xbd, 0x27, 0xe2, 0xa2, 0xbc,
    0x6e, 0xb1, 0x6e, 0x3c, 0x9f, 0x3a, 0x62, 0x3e, 0x3f, 0x3a,
    0x5d, 0xbd, 0x9f, 0xf9, 0x03, 0xbc, 0x43, 0x12, 0x43, 0x3d,
    0x30, 0xab, 0x05, 0x3e, 0x0b, 0x4f, 0x38, 0x3e, 0x6a, 0xc3,
    0x6c, 0x3c, 0xfc, 0x60, 0x74, 0xbd, 0xdb, 0x39, 0x7e, 0x3e,
    0x73, 0xa6, 0x1a, 0xbd, 0x6a, 0x75, 0x71, 0x3d, 0xde, 0x01,
    0x9c, 0x3d, 0x3d, 0xad, 0xe3, 0x3d, 0xce, 0xc9, 0x7f, 0x3e,
    0xba, 0x95, 0x32, 0xbc, 0x72, 0xa7, 0x94, 0xbc, 0x31, 0x6f,
    0x05, 0x3e, 0x8d, 0xea, 0x27, 0xbe, 0x46, 0x8f, 0x62, 0x3d,
    0xb4, 0x8a, 0x04, 0x3e, 0x1e, 0x73, 0xca, 0x3d, 0xd3, 0x5f,
    0x4f, 0x3e, 0xcd, 0x9d, 0x95, 0xbe, 0xe5, 0x95, 0x57, 0xbe,
    0xc5, 0xc9, 0x65, 0xbe, 0x1e, 0xa7, 0xce, 0x3b, 0xe1, 0x95,
    0xc5, 0x3d, 0x0e, 0x69, 0x20, 0x3e, 0xb8, 0x7f, 0x18, 0x3e,
    0x9d, 0x84, 0xf9, 0x3d, 0xa8, 0xa9, 0xb5, 0xbe, 0x76, 0x3a,
    0x17, 0xbd, 0x16, 0xdc, 0x5d, 0xbe, 0x57, 0xb9, 0xfe, 0xbd,
    0xca, 0xe9, 0xcc, 0xbd, 0x77, 0xa4, 0xbf, 0x3d, 0x8c, 0x44,
    0x0b, 0x3e, 0x04, 0xc6, 0x57, 0xbe, 0x0f, 0x1f, 0xfa, 0xbd,
    0x75, 0xbf, 0x0c, 0xbe, 0xbd, 0x5d, 0x34, 0x3e, 0x8f, 0x30,
    0x77, 0x3c, 0x30, 0x19, 0xec, 0x3b, 0x81, 0x46, 0x46, 0x3d,
    0xee, 0x46, 0x90, 0x3d, 0x01, 0xc8, 0x3a, 0x3d, 0xea, 0x23,
    0x0e, 0x3d, 0x0e, 0x6f, 0xe0, 0xbd, 0xdc, 0xa0, 0x18, 0x3e,
    0x31, 0x5a, 0x9b, 0x3c, 0x89, 0xe3, 0x58, 0xbd, 0x5f, 0x77,
    0x2a, 0x3e, 0x68, 0x35, 0x0c, 0x3c, 0xaa, 0xcd, 0xb6, 0x3a,
    0x08, 0x93, 0x42, 0xbe, 0x15, 0x7a, 0xe5, 0xbc, 0x68, 0x08,
    0x55, 0x3e, 0x85, 0xfd, 0xe4, 0xbc, 0xa8, 0xba, 0x44, 0xbc,
    0x2d, 0xa3, 0x85, 0x3c, 0xf6, 0x86, 0x24, 0xbe, 0x08, 0xc5,
    0x02, 0xbd, 0xec, 0xd7, 0x86, 0x3e, 0xcd, 0xb2, 0xe5, 0x3d,
    0x05, 0x91, 0x41, 0x3c, 0xe2, 0x07, 0x1b, 0x3e, 0xd8, 0x57,
    0xa7, 0x3d, 0xd0, 0x8c, 0x3f, 0xbe, 0xf2, 0x34, 0x7f, 0xbe,
    0xda, 0x01, 0xca, 0x3d, 0x73, 0x73, 0x81, 0x3e, 0xd9, 0x13,
    0x5c, 0x3e, 0xc6, 0x78, 0xa1, 0xbd, 0x04, 0x7f, 0x19, 0x3e,
    0x0a, 0xec, 0x33, 0xbe, 0x92, 0x1d, 0xc4, 0x3d, 0x92, 0xdf,
    0x66, 0xbd, 0x29, 0x90, 0x22, 0xbe, 0x67, 0xae, 0x07, 0xbd,
    0xe1, 0x85, 0x8c, 0xbd, 0xab, 0x7b, 0xd3, 0x3d, 0x9f, 0x3e,
    0x30, 0x3d, 0xb8, 0xcc, 0x56, 0xbd, 0x94, 0x86, 0x0c, 0xbe,
    0x9e, 0x27, 0x2e, 0xbe, 0xdc, 0x7c, 0xfa, 0x39, 0xb1, 0xed,
    0x1a, 0xbd, 0xb1, 0xed, 0x74, 0xbd, 0x8b, 0x46, 0x8e, 0x3d,
    0xd5, 0xa2, 0x0c, 0xbe, 0xc9, 0xd4, 0x72, 0xbd, 0x15, 0x74,
    0x88, 0x3d, 0xe5, 0x38, 0x6e, 0x3e, 0x54, 0xf4, 0x7a, 0x3a,
    0x9d, 0x85, 0xb2, 0x3d, 0xc0, 0xec, 0xee, 0xba, 0xcd, 0xa2,
    0x41, 0xbe, 0x14, 0xf1, 0x89, 0x3d, 0x77, 0x23, 0x32, 0xbd,
    0xab, 0x4d, 0xb0, 0xbc, 0x41, 0x07, 0x15, 0x3d, 0x89, 0xd6,
    0x1c, 0xbe, 0x40, 0xac, 0x47, 0x3e, 0xe5, 0x0f, 0x8b, 0x3d,
    0x25, 0xa9, 0x5e, 0x3d, 0x03, 0xd6, 0x2f, 0x3e, 0xbb, 0x90,
    0x78, 0xbd, 0xde, 0xff, 0xd0, 0xbd, 0x0d, 0x03, 0xaf, 0x3c,
    0x82, 0xbe, 0xa7, 0xbd, 0x12, 0x34, 0x4b, 0x3e, 0x7d, 0x07,
    0x8f, 0x3d, 0x89, 0xc8, 0x4a, 0x3e, 0x5f, 0x28, 0xa0, 0xbd,
    0xb9, 0xfa, 0x8e, 0x3d, 0x3f, 0x09, 0x5d, 0xbe, 0x72, 0x2b,
    0xb4, 0xbd, 0xf1, 0x37, 0x56, 0x3e, 0x9d, 0xae, 0xb0, 0x3d,
    0x8c, 0x5d, 0x06, 0xbe, 0xee, 0xc6, 0x86, 0x3d, 0x66, 0x0a,
    0xfa, 0xbd, 0x6a, 0xfd, 0xa8, 0xbe, 0x23, 0xe1, 0x43, 0x3c,
    0xfe, 0x32, 0x66, 0xbd, 0x65, 0xf9, 0x96, 0xbe, 0x3b, 0xaf,
    0xe2, 0xbc, 0xe8, 0x39, 0x9f, 0x3c, 0x7d, 0x95, 0x23, 0x3d,
    0xeb, 0x4a, 0x73, 0x3d, 0xe1, 0x10, 0x1a, 0xbe, 0x4d, 0x2e,
    0x23, 0xbc, 0x86, 0xd6, 0x15, 0xbb, 0x57, 0xeb, 0x9c, 0xbe,
    0x42, 0xd6, 0x51, 0x3d, 0xa9, 0xfe, 0x61, 0x3c, 0x3a, 0x44,
    0xd7, 0xbd, 0x5d, 0x72, 0x11, 0x3e, 0xdd, 0xa4, 0x2a, 0xbd,
    0x3f, 0xb9, 0x8a, 0xbe, 0xc0, 0x05, 0x06, 0xbe, 0xa4, 0x9c,
    0x82, 0xbe, 0xa6, 0x99, 0x4a, 0x3e, 0x7f, 0x81, 0x3f, 0x3e,
    0x63, 0xa3, 0xa2, 0x3b, 0xbc, 0x52, 0x9f, 0x3d, 0x9c, 0x26,
    0x6f, 0xbe, 0xa6, 0x70, 0xf4, 0xbe, 0x91, 0x20, 0xfa, 0xbe,
    0x81, 0xc5, 0x57, 0xbe, 0x70, 0x2f, 0x2f, 0x3e, 0x61, 0xc2,
    0xf9, 0xbd, 0x81, 0xc7, 0x65, 0xbc, 0x06, 0x24, 0x40, 0xbe,
    0x50, 0xd7, 0xf4, 0xbe, 0x66, 0x55, 0x12, 0xbf, 0xd2, 0xa3,
    0x07, 0xbf, 0xd1, 0x55, 0xa7, 0xbd, 0x7a, 0xc3, 0x5e, 0x3d,
    0xb2, 0xfa, 0x10, 0xbf, 0x0d, 0x1f, 0xbb, 0xbc, 0xbb, 0x5a,
    0x8a, 0xbd, 0xa4, 0x4a, 0xb4, 0x3d, 0x73, 0x7c, 0x90, 0x3c,
    0xb9, 0xa2, 0x91, 0x3b, 0x80, 0xd7, 0x1d, 0xbe, 0x5c, 0xf5,
    0x7f, 0x3b, 0x1f, 0xdd, 0x24, 0x3d, 0xc8, 0x4e, 0xb6, 0xbe,
    0xa3, 0x2c, 0x46, 0x3e, 0xe6, 0x41, 0x21, 0xbc, 0x7c, 0x35,
    0xd8, 0x3d, 0xa0, 0x88, 0xfe, 0x3c, 0x69, 0x62, 0x0a, 0xbe,
    0x96, 0x4b, 0xc4, 0x3d, 0xdf, 0x31, 0x63, 0x3d, 0x57, 0x3d,
    0x8a, 0xbe, 0xd4, 0x3e, 0xca, 0x3d, 0x82, 0x32, 0x0b, 0x3e,
    0xb2, 0x97, 0xa9, 0xbb, 0x04, 0x60, 0x8c, 0x3d, 0x48, 0x13,
    0xa4, 0x3b, 0x36, 0xd9, 0xf8, 0x3c, 0x87, 0x32, 0x00, 0x3e,
    0xd2, 0x8c, 0xb8, 0xbe, 0x10, 0x69, 0x4f, 0xbe, 0x68, 0xae,
    0x40, 0x3e, 0xae, 0x1f, 0x2a, 0xba, 0xab, 0x59, 0xc5, 0x3d,
    0x30, 0x14, 0xdf, 0x3d, 0x0e, 0xd7, 0xd9, 0xbd, 0x6f, 0xca,
    0xf3, 0x3b, 0xdc, 0x75, 0xdc, 0xbe, 0x7c, 0x46, 0x0c, 0xbd,
    0xca, 0xf3, 0xa3, 0x3d, 0xb4, 0x1d, 0x1e, 0x3d, 0x4c, 0xe1,
    0x2c, 0x3d, 0x0f, 0xe3, 0x21, 0x3d, 0x67, 0x28, 0xcf, 0xbd,
    0x6a, 0x88, 0x9b, 0xbd, 0x5b, 0xe0, 0x53, 0xbe, 0xde, 0x78,
    0x00, 0x3d, 0xf8, 0x68, 0x04, 0x3d, 0x9f, 0x08, 0xb1, 0x3c,
    0xee, 0x67, 0xa4, 0x3d, 0x53, 0xa1, 0xb0, 0xbb, 0xba, 0xce,
    0xa2, 0x3d, 0x2d, 0xbd, 0x5d, 0x3d, 0x83, 0xa4, 0xa5, 0xbe,
    0xdb, 0x29, 0x43, 0x3d, 0x5d, 0x16, 0xb4, 0x3d, 0x2e, 0xa8,
    0xd5, 0x3c, 0xcc, 0x42, 0x66, 0x3d, 0x62, 0x03, 0xd7, 0x3b,
    0xf8, 0x04, 0x84, 0x3d, 0xf7, 0x26, 0xba, 0x3d, 0xb9, 0x05,
    0x6b, 0xbd, 0x5a, 0xbb, 0x99, 0x3c, 0xe8, 0xf2, 0x89, 0x3c,
    0xa8, 0x95, 0x9e, 0xbc, 0x72, 0x7e, 0xef, 0x3c, 0x05, 0xb0,
    0x18, 0x3d, 0xe7, 0xe8, 0x50, 0xbe, 0xc6, 0xdf, 0x80, 0xbd,
    0xe7, 0xad, 0xb8, 0xbc, 0x95, 0xf9, 0xc2, 0x3b, 0xc5, 0x97,
    0x35, 0x3d, 0x0a, 0xdb, 0xfb, 0xbb, 0xf1, 0xfb, 0x8b, 0xbc,
    0xa7, 0x48, 0xa7, 0x3d, 0x61, 0x01, 0x16, 0xbe, 0x8b, 0x2b,
    0x6a, 0x3e, 0x58, 0x91, 0xb2, 0xbc, 0xfd, 0xb0, 0xea, 0x3d,
    0x57, 0x38, 0xc1, 0x3d, 0x14, 0xf4, 0x9a, 0x3d, 0x60, 0x92,
    0x17, 0xba, 0x29, 0x7f, 0xdd, 0x3d, 0xff, 0x76, 0x5a, 0x3d,
    0xbd, 0xac, 0x97, 0x3e, 0xaf, 0x74, 0x9d, 0x3d, 0xf8, 0xf6,
    0x91, 0xbd, 0x9c, 0x5d, 0x66, 0x3d, 0xac, 0x21, 0x07, 0xbe,
    0xdf, 0x21, 0x0d, 0xbe, 0x40, 0xc6, 0xce, 0x3d, 0xc5, 0x6e,
    0x06, 0x3d, 0x5f, 0x4d, 0x17, 0xbd, 0x18, 0x4f, 0x19, 0xbe,
    0x87, 0x2d, 0xa9, 0xbd, 0xaf, 0x36, 0x26, 0x3e, 0x65, 0x3f,
    0x10, 0xbd, 0x88, 0x80, 0x59, 0xbe, 0x5a, 0x94, 0xf7, 0x3d,
    0x66, 0x3e, 0xde, 0xbd, 0x0e, 0x7e, 0xbe, 0xbc, 0xa9, 0x01,
    0xc8, 0xbe, 0xbd, 0x27, 0x0c, 0xbd, 0xca, 0x14, 0x24, 0xbb,
    0x75, 0x4f, 0x87, 0x3d, 0x8f, 0xd3, 0xc2, 0xbb, 0x38, 0x57,
    0x77, 0xbc, 0xec, 0x82, 0xbf, 0xbe, 0x63, 0xb8, 0x6d, 0x3d,
    0x36, 0x67, 0x64, 0x3c, 0xb5, 0x61, 0x89, 0xbc, 0x4f, 0xa7,
    0x8d, 0xbd, 0x3f, 0xc8, 0x7b, 0x3d, 0x54, 0x21, 0x67, 0x3d,
    0xef, 0xda, 0xfa, 0xbd, 0x1d, 0x22, 0x3f, 0xbe, 0xe8, 0xde,
    0xda, 0x3d, 0x38, 0x30, 0x79, 0x3e, 0xec, 0xb8, 0xe7, 0x3d,
    0x67, 0x22, 0x5f, 0x3e, 0xaf, 0x89, 0x1b, 0xbe, 0x23, 0x5b,
    0x66, 0xbb, 0x38, 0x6c, 0x8e, 0x3e, 0x35, 0xb0, 0x3d, 0x3e,
    0xeb, 0x0d, 0xb4, 0x3d, 0x28, 0xde, 0x40, 0x3d, 0x10, 0x3a,
    0xa1, 0x3c, 0x4b, 0x71, 0x8d, 0x3c, 0x9e, 0x04, 0xd5, 0x3d,
    0xe9, 0x28, 0xc2, 0x3d, 0x77, 0xde, 0x1b, 0xbd, 0x42, 0x38,
    0xea, 0x3d, 0x97, 0x0f, 0x0f, 0x3e, 0xd3, 0x91, 0x00, 0xbe,
    0x5b, 0xeb, 0x7d, 0x3d, 0x9e, 0x3c, 0x9a, 0xbb, 0xef, 0xae,
    0xbd, 0x3c, 0x55, 0x68, 0x1a, 0x3e, 0xa0, 0x56, 0x58, 0x3c,
    0x35, 0xe3, 0xe2, 0x3d, 0x59, 0xbe, 0x93, 0x3e, 0x50, 0x09,
    0xda, 0xbd, 0xd5, 0x21, 0xe3, 0x3d, 0x94, 0x3a, 0x30, 0x3d,
    0x2e, 0x3d, 0xdb, 0xbe, 0xd0, 0x03, 0xbd, 0xbd, 0x37, 0xdf,
    0xa3, 0x3b, 0x84, 0xab, 0xb2, 0xbe, 0x84, 0x9b, 0x16, 0x3d,
    0x46, 0x39, 0xce, 0x3c, 0xe9, 0xc7, 0x64, 0xbe, 0x16, 0xbd,
    0x62, 0x3d, 0x36, 0x57, 0xd2, 0xbd, 0xd8, 0x24, 0xf8, 0xbd,
    0x83, 0x19, 0xea, 0x3d, 0x9d, 0xab, 0x9a, 0xbe, 0x40, 0x14,
    0xc4, 0xbd, 0xa5, 0x03, 0xe4, 0x3d, 0xf1, 0x85, 0x2c, 0xbe,
    0x5c, 0x89, 0x14, 0xbc, 0x09, 0x3e, 0x8f, 0x3d, 0xe3, 0x94,
    0xe5, 0x3d, 0x42, 0x54, 0x52, 0x3d, 0xdf, 0xfe, 0xed, 0x3c,
    0x01, 0xaf, 0xea, 0xbd, 0xe7, 0x25, 0x63, 0xbe, 0x3e, 0x7a,
    0x35, 0x3d, 0x78, 0x08, 0xdd, 0x3c, 0xcc, 0x25, 0x4d, 0xbe,
    0xc3, 0xc4, 0x6c, 0xbe, 0x23, 0x58, 0x87, 0x3b, 0xd0, 0xde,
    0xc0, 0x3d, 0x5d, 0x96, 0xd6, 0x3d, 0xe1, 0x0c, 0x4e, 0xbe,
    0x53, 0xd9, 0x10, 0x3e, 0x4f, 0x95, 0xd7, 0x3d, 0xd4, 0x4b,
    0xb7, 0xbe, 0x20, 0xcb, 0x90, 0xbe, 0xfd, 0xc3, 0x01, 0xbd,
    0x50, 0x07, 0x4e, 0x3d, 0x8d, 0x78, 0x52, 0xbd, 0x1d, 0x79,
    0xab, 0xbe, 0x9a, 0xfa, 0x99, 0x3c, 0x36, 0x11, 0x88, 0x3c,
    0xbd, 0x07, 0x39, 0xbd, 0xd8, 0x37, 0xb0, 0xbd, 0x4d, 0x37,
    0x6c, 0xbd, 0x43, 0x23, 0xbd, 0xbe, 0x05, 0x78, 0x0e, 0x3d,
    0xbd, 0x83, 0x5b, 0xbe, 0xf6, 0xee, 0x68, 0x3d, 0xc3, 0x36,
    0x38, 0xbd, 0xa8, 0x71, 0xa2, 0x3c, 0x54, 0x83, 0xed, 0x3c,
    0x3d, 0xc1, 0x17, 0xbe, 0x56, 0x97, 0x75, 0xbe, 0xd3, 0x94,
    0x52, 0x3e, 0x26, 0xc9, 0x3f, 0xbe, 0x84, 0x9e, 0x9e, 0x3d,
    0x29, 0xa4, 0x4b, 0xbe, 0x40, 0xfd, 0x49, 0xbd, 0x4e, 0x9f,
    0x64, 0x3d, 0x3b, 0x86, 0x1f, 0xbe, 0x8f, 0x41, 0x8a, 0xbd,
    0x0d, 0xce, 0xec, 0x3d, 0x7f, 0x8e, 0x47, 0x3e, 0x88, 0xba,
    0x10, 0xbf, 0xa2, 0x98, 0x40, 0xbe, 0xbf, 0x31, 0xcd, 0xbd,
    0x36, 0xe7, 0xbc, 0xbd, 0xd0, 0x5f, 0xbd, 0xbe, 0xc9, 0xcc,
    0x1e, 0xbe, 0xfd, 0x9a, 0x84, 0xbe, 0x4b, 0x74, 0x57, 0x3e,
    0xb3, 0xc5, 0xc2, 0xbe, 0x7e, 0x4b, 0xed, 0xbe, 0x9b, 0x20,
    0x84, 0x3d, 0x4d, 0x3f, 0xd8, 0x3b, 0x6f, 0x3f, 0xdd, 0xbe,
    0x48, 0x15, 0x90, 0x3a, 0x81, 0xa2, 0xa4, 0xbd, 0xfb, 0xfe,
    0x35, 0xbf, 0x95, 0x6a, 0x0e, 0xbf, 0x68, 0x3c, 0xe7, 0xbe,
    0x93, 0x0a, 0x98, 0x3c, 0x0f, 0xd4, 0xa3, 0x3d, 0xd7, 0xa1,
    0xff, 0xbe, 0x0a, 0xe0, 0xfe, 0xba, 0x5b, 0xa3, 0xc3, 0x3d,
    0x84, 0x08, 0x05, 0xbf, 0x68, 0xf2, 0x28, 0xbf, 0x1f, 0x04,
    0x17, 0xbf, 0x53, 0x7b, 0xae, 0x3c, 0x56, 0xf6, 0xbd, 0x3d,
    0xf1, 0x48, 0x9f, 0xbe, 0x1e, 0xcf, 0xcf, 0xbe, 0xe1, 0x28,
    0xf5, 0xbd, 0x52, 0xbd, 0x4e, 0xbe, 0x34, 0xbf, 0x05, 0xbf,
    0x66, 0x8d, 0x09, 0xbf, 0xf9, 0xe6, 0xcf, 0xbc, 0x88, 0x63,
    0x2b, 0x3d, 0xa6, 0x22, 0xb2, 0xbe, 0x52, 0x6f, 0xf6, 0xbe,
    0x1b, 0x7e, 0x11, 0xbf, 0xb3, 0x25, 0xd8, 0xbe, 0x8c, 0xfb,
    0x45, 0x3e, 0x7b, 0x37, 0xd9, 0xbc, 0x4f, 0x4e, 0x8f, 0x3d,
    0xc7, 0x7e, 0x93, 0x3d, 0x53, 0x0a, 0xc8, 0xbe, 0x6d, 0xd5,
    0x0b, 0x3d, 0x15, 0xff, 0x93, 0x3d, 0x1e, 0x1d, 0x1a, 0xbe,
    0xd3, 0x49, 0x9b, 0x3d, 0xac, 0x7f, 0x9b, 0xbd, 0x9e, 0x02,
    0xaa, 0x3d, 0x4a, 0xea, 0x7a, 0x3d, 0xd5, 0x74, 0x89, 0xbe,
    0x2d, 0x83, 0xaf, 0x3d, 0x3e, 0x27, 0x29, 0x3e, 0x02, 0x62,
    0xce, 0x3d, 0x4e, 0xd1, 0xfe, 0x3b, 0x64, 0xcb, 0x58, 0x3d,
    0xd9, 0x63, 0xd4, 0x3c, 0x09, 0x7f, 0xb0, 0x3d, 0xa6, 0x00,
    0xcc, 0x3d, 0x29, 0x6e, 0xee, 0xbd, 0x42, 0x64, 0xbd, 0x3d,
    0x17, 0xef, 0x9a, 0xbc, 0x95, 0xe3, 0x0a, 0xbe, 0x3d, 0x15,
    0x53, 0x3d, 0x12, 0xe0, 0x06, 0x3d, 0xf5, 0x56, 0xac, 0x3d,
    0xed, 0xdd, 0xcb, 0x3d, 0xd5, 0x1e, 0x73, 0xbe, 0xff, 0x95,
    0x3f, 0x3e, 0xcb, 0xd6, 0x91, 0xbe, 0xb6, 0xaa, 0x75, 0xbe,
    0xa4, 0xab, 0xc6, 0xbd, 0xd8, 0x0a, 0x05, 0x3d, 0x11, 0x3f,
    0xe5, 0x3c, 0x8a, 0x56, 0x5f, 0xbd, 0xa8, 0xf3, 0xdb, 0xbe,
    0xc9, 0xac, 0x07, 0xbd, 0xc0, 0x91, 0x8b, 0xbe, 0x0b, 0x06,
    0x5b, 0x3d, 0x0f, 0x0b, 0x99, 0x3d, 0xc5, 0x07, 0x6a, 0xbe,
    0x17, 0x1d, 0x0a, 0xbe, 0x4c, 0xe2, 0xe0, 0xbd, 0x2b, 0xc7,
    0xc2, 0x3d, 0x11, 0x65, 0x80, 0xbd, 0x99, 0x92, 0xf2, 0xbd,
    0xd1, 0x0d, 0x9c, 0x3d, 0x8b, 0x6e, 0xbf, 0x3d, 0xbb, 0xcc,
    0x20, 0xbe, 0x44, 0xef, 0x69, 0xbe, 0xd4, 0x2e, 0x6d, 0x3d,
    0x67, 0xf0, 0x2a, 0xbd, 0x7d, 0x8e, 0x24, 0x3c, 0x65, 0x57,
    0xaa, 0xbc, 0xa1, 0x8c, 0x4b, 0xbe, 0xdc, 0xe8, 0x33, 0x3c,
    0xf2, 0x39, 0x8a, 0x3d, 0x58, 0x6b, 0xb0, 0xbd, 0xae, 0xd9,
    0xa1, 0x3c, 0xda, 0xe3, 0x8f, 0xbd, 0x57, 0x24, 0x03, 0x3d,
    0x20, 0xca, 0x52, 0xbe, 0xa0, 0x0a, 0xbd, 0x3c, 0x21, 0x78,
    0xa1, 0x3d, 0x0e, 0x31, 0x0e, 0x3d, 0x03, 0x12, 0x05, 0x3d,
    0x9e, 0xb2, 0x9c, 0xbd, 0x0a, 0xd3, 0xb5, 0xbc, 0x67, 0x48,
    0xd1, 0x3d, 0xf0, 0x39, 0x99, 0xbd, 0x05, 0x73, 0x2e, 0x3e,
    0xbc, 0x9f, 0x6b, 0xbe, 0xd5, 0x31, 0x74, 0xbe, 0xb2, 0x0d,
    0x40, 0xba, 0x0d, 0x0e, 0x7d, 0xbe, 0x6b, 0x39, 0x0f, 0xbc,
    0x0c, 0x1c, 0x50, 0xbe, 0x25, 0x9d, 0x43, 0x3d, 0x6c, 0xf6,
    0x49, 0xbc, 0x39, 0x8c, 0x98, 0x3d, 0x72, 0x8e, 0xb5, 0xbe,
    0x5a, 0xd3, 0x1a, 0xbf, 0xfb, 0x3b, 0xd5, 0x3d, 0x06, 0x62,
    0x63, 0xbd, 0x89, 0xa2, 0x61, 0xbe, 0x62, 0x21, 0xc1, 0x3d,
    0x9f, 0x92, 0xfd, 0xbd, 0x17, 0xe1, 0x3a, 0x3d, 0x4a, 0xe8,
    0xb3, 0x3d, 0x76, 0x2a, 0xc0, 0xbd, 0x89, 0xaa, 0x22, 0x3e,
    0x9a, 0x1f, 0xa6, 0xbe, 0xe3, 0x5c, 0xcf, 0xbe, 0xd3, 0xee,
    0xcc, 0x3d, 0x33, 0x1a, 0x25, 0xbc, 0x53, 0x44, 0xf5, 0x3d,
    0x9b, 0xbd, 0x50, 0x3d, 0x34, 0x04, 0xc2, 0x3d, 0x4e, 0xb7,
    0x11, 0x3e, 0x0b, 0x99, 0x46, 0xbd, 0x1b, 0x53, 0xb6, 0x3d,
    0x44, 0xc4, 0xc3, 0x3d, 0xd7, 0x37, 0x4d, 0x3d, 0x04, 0xc6,
    0xcd, 0x3d, 0x79, 0x66, 0x94, 0xbe, 0x16, 0x3f, 0x13, 0xbd,
    0xbd, 0x4e, 0x62, 0x3d, 0x8a, 0xea, 0x89, 0xbd, 0x18, 0x2c,
    0x0e, 0x3d, 0x39, 0xa9, 0xcc, 0x3d, 0xc1, 0x9e, 0xa4, 0xbd,
    0x72, 0xc4, 0x63, 0xbe, 0x44, 0x93, 0x1d, 0xbf, 0x26, 0x07,
    0x1b, 0xbf, 0x98, 0x2b, 0x4d, 0xbe, 0x75, 0x98, 0x5e, 0x3e,
    0x3e, 0x5d, 0x11, 0xbe, 0x32, 0xd4, 0x08, 0x3e, 0x92, 0xa9,
    0x37, 0xbe, 0x55, 0x73, 0x26, 0xbe, 0x03, 0x65, 0xd2, 0x3c,
    0xb4, 0x81, 0x33, 0xbe, 0x4e, 0x8e, 0x11, 0xbe, 0xdf, 0x80,
    0x08, 0xbe, 0x2c, 0x0f, 0x3e, 0xbe, 0x7d, 0x3b, 0x36, 0x3e,
    0xc0, 0x7d, 0xb5, 0xbc, 0xe8, 0x61, 0x9f, 0xbd, 0x5e, 0xd6,
    0x0e, 0x3e, 0x25, 0x0e, 0x04, 0x3e, 0xcd, 0xcf, 0x58, 0xbb,
    0xf3, 0xdf, 0x38, 0x3d, 0x00, 0x5b, 0xf8, 0x3c, 0xda, 0xe4,
    0xa7, 0x3d, 0xb6, 0xdb, 0x1c, 0x3e, 0x50, 0x6d, 0xb1, 0xbd,
    0x51, 0xb1, 0x88, 0xbd, 0x6a, 0xbd, 0x40, 0xbd, 0xcb, 0x71,
    0x05, 0xbe, 0x96, 0xf2, 0x5c, 0x3e, 0x55, 0x0d, 0x66, 0x3e,
    0xf8, 0x20, 0x8d, 0xbc, 0x55, 0x7b, 0xbf, 0x3d, 0x84, 0x42,
    0xa7, 0x3c, 0x11, 0x61, 0x80, 0xbe, 0x66, 0xf9, 0x7e, 0xbe,
    0x90, 0x8b, 0x20, 0xbd, 0xe5, 0x97, 0x8a, 0x3e, 0xa4, 0x94,
    0x3b, 0xbd, 0x71, 0x38, 0x88, 0xbe, 0xf5, 0xc4, 0x3f, 0x3d,
    0xc4, 0x0d, 0xea, 0xbd, 0x06, 0xf1, 0x39, 0xbc, 0x9a, 0xd7,
    0xc3, 0xbe, 0xd9, 0xe5, 0x4e, 0xbe, 0x7d, 0xa7, 0x33,
    0x3d, 0xbc, 0x5b, 0x7b, 0x3c, 0x38, 0x0c, 0xc8, 0xbd,
    0x91, 0xda, 0xdb, 0x3e, 0x60, 0xbd, 0x1d, 0xbe, 0x99,
    0xf7, 0x24, 0xbe, 0x0d, 0xf3, 0xc9, 0xbd, 0xcc, 0xfe,
    0x82, 0x3c, 0xf5, 0xf5, 0x6a, 0xbd, 0xfd, 0x41, 0x6f,
    0xbd, 0xbc, 0xc7, 0x20, 0x3c, 0x9b, 0xb9, 0xd0, 0x3d
  };

  return AI_HANDLE_PTR(s_network_weights);

}

